<pad>
<eos>
<unk>
,
.
&apos;
ve
&quot;
bir
da
bu
de
için
/
nin
ın
ab
nın
a
ile
in
)
(
günü
@-@
sırbistan
kosova
olarak
olan
daha
en
-
dedi
:
avrupa
yeni
söyledi
türkiye
göre
daki
dan
çok
olduğunu
sırp
&#93;
&#91;
i
iki
yer
e
arasında
tarafından
ya
büyük
son
uluslararası
makedonya
yıl
bh
devam
etti
ilgili
kadar
hırvatistan
ye
ancak
g@@
diğer
siyasi
belgrad
k@@
bakanı
den
times
c@@
yaptığı
ler
başkanı
un
konusunda
arnavutluk
s@@
al@@
leri
üzere
her
an@@
ülkenin
ta
eski
setimes
abd
olduğu
lar
european
southeast
t@@
karadağ
bulgaristan
cumhurbaşkanı
önemli
milyon
e@@
ları
karşı
--
p@@
sonra
ı
o
yunanistan
ilk
romanya
o@@
gibi
nato
bm
10
m@@
fazla
h@@
y@@
%
an
haberi
te
genel
i@@
d@@
l@@
ise
yüzde
iyi
j@@
yılında
verdiği
z@@
11
ülke
kabul
ar@@
f@@
li
re@@
şekilde
ekonomik
at@@
devlet
birlikte
olmak
t
bosna
önce
türk
dışişleri
başbakan
;
in@@
n@@
nun
lerin
üç
deki
me@@
ne
sahip
v@@
s
savaş
içinde
la@@
ç@@
sonrasında
yüksek
güvenlik
b@@
yaklaşık
lerini
ini
inin
ti@@
ediyor
ların
12
u
pazartesi
geçen
bin
ş@@
yapılan
veya
üzerinde
a@@
şöyle
ını
oldu
hersek
gelen
te@@
hükümet
ına
ının
değil
ay
hırvat
hafta
söz
açıklamada
ayında
er@@
on
bütün
başbakanı
fakat
le
kıbrıs
bunun
larını
il@@
polis
lara
çarşamba
ma
eden
ma@@
r@@
larının
ayrıca
li@@
le@@
lerinin
özel
belirtti
en@@
yerel
avro
var
yol
m
iç
üyelik
ten
di@@
işbirliği
09
aynı
ra@@
la
me
geri
dünya
lere
salı
düzenlenen
getty
images
geldi
ulusal
05
u@@
yönelik
ak@@
07
06
bazı
as@@
de@@
yerine
sıra
priştine
alıyor
demeçte
04
03
08
reuters
kal@@
mak
hakkında
si@@
k
larına
verdi
afp
1
yeniden
konusu
yönünde
partisi
pek
ine
yanı
w@@
karar
biri
yardım
yana
20
arasındaki
is@@
üyesi
gerektiğini
alan
yi
ortak
ne@@
iş
tek
pazar
ak
enerji
hükümeti
arnavut
konuşan
se@@
mart
maya
l
ki
uzun
olacak
?
ü@@
sadece
ol@@
mayıs
ekim
2
haziran
ması
lik
lerine
perşembe
ro@@
çeşitli
tüm
aralık
ana
15
parti
ocak
amaçlı
hükümetin
diyen
aldı
sa@@
on@@
makedon
anlaşma
şu
ver@@
be@@
bulundu
destek
dört
mücadele
yetkililer
gün
un@@
st@@
ke@@
or@@
30
temmuz
hem
kasım
yı
etnik
d
karşın
ileri
açısından
nisan
üsküp
mi@@
ri@@
barış
mek
bakanlığı
inde
yunan
mesi
balkan
di
bulunuyor
ap
geçtiğimiz
ında
savunma
meye
oviç
az
araya
saraybosna
lı
3
dahil
mevcut
balkanlar
kültür
lerinden
rağmen
eylül
bulgar
tam
larından
aldığı
r
zaman
yardımcısı
ziyaret
kamu
p
komisyonu
y
resmi
25
şubat
kendi
sorumlu
seçim
it@@
kosovalı
ha@@
yatırım
er
ay@@
ortaya
bekleniyor
ından
anda
os@@
askeri
mayı
gerekiyor
olması
konseyi
atina
ğ@@
ul@@
sırasında
başka
ye@@
etmek
kar@@
yalnızca
yapılacak
c
ikinci
lardan
masına
anlaşması
para
tadiç
ce@@
milyar
am@@
diyerek
ekonomi
merkezi
masını
si
üye
kon@@
eğitim
yap@@
17
tan
lerden
rusya
yıllık
dış
bil@@
i̇@@
ü
larla
mesine
kişi
görev
ev
ad@@
ekledi
katılım
altında
ı@@
şey
avroluk
ko@@
5
ayı
söylüyor
cuma
var@@
basın
yakın
cumhuriyeti
acak
6
ıyla
ıyor
man@@
ar
nedeniyle
4
et@@
16
bulunan
larda
bunu
lerde
mar@@
sayıda
ağustos
im@@
beş
7
insan
teki
02
ek@@
lerinde
amacıyla
ik@@
bankası
hiçbir
bosnalı
bölgesel
par@@
el@@
üst
edilen
mış
ün
ci@@
13
ciddi
brüksel
mesini
ilişkin
-@@
açık
el
kaynaklar
mali
altı
göster@@
iste@@
dile
una
av@@
larında
01
bakan
18
8
z
kısa
geç@@
unun
gereken
oy
başladı
kapsamında
ticaret
sona
14
ev@@
meyi
yönündeki
ardından
lerle
sınır
ilerleme
haber
inşa
ur@@
mi
miş
sc
batı
27
kur@@
mahkemesi
da@@
diyor
suç
sosyal
unu
taki
tr@@
ın@@
tiran
bölge
derece
ac@@
dı
lahey
meydana
hi@@
kuzey
durumda
önümüzdeki
şeklinde
güçlü
çıkar@@
arak
mu@@
ter@@
güneydoğu
2004
ası
ıl@@
inden
21
elde
demokrat
meclis
bile
adlı
kararı
gelecek
se
suçları
ankara
ag@@
sözlerine
demokratik
imf
i̇stanbul
aş@@
ca
lan@@
günkü
sofya
yle
na
ülkede
24
toplam
ifade
mladiç
manın
22
erdoğan
farklı
ba@@
durum
masının
yılın
ka
bi@@
bükreş
çoğu
düşük
ch@@
at
maları
mü@@
çözüm
19
mo@@
ele
almanya
ama
süre
23
edil@@
iş@@
28
küçük
hale
g
hazır
yine
yaşanan
us@@
artık
bo@@
film
lık
mil@@
üzerine
gerekli
do@@
yargı
kullan@@
lu@@
bar@@
aday
baş@@
ülkeleri
yabancı
adalet
um@@
yolunda
düzey
rum
26
h
san@@
sağlık
oluşan
len@@
mesinin
lideri
9
2007
yaşındaki
yok
ö@@
dairesi
organize
aları
tı
çalış@@
nde
kazan@@
edecek
ülkesinin
leriyle
birliği
19@@
diği
ov@@
n
olmadığını
sorun
teslim
halinde
ir@@
katıldı
ettiği
ülkedeki
günlük
ot@@
bilim
2008
etme
iddia
diğini
burada
zorunda
isi
satın
olumlu
kredi
elektrik
irak
orta
2@@
iz@@
yugoslavya
es@@
bağlı
başta
sonunda
ulaş@@
zamanda
bulun@@
gel@@
i̇ki
ce
ge@@
reform
konuşmada
toplum
belediye
dığı
ve@@
icty
lider
ortaklık
hakları
merkez
yasa
ku@@
az@@
özellikle
29
boyunca
birkaç
turizm
zagreb
dair
50
buna
bağımsız
2006
aç@@
uygun
çıkan
larıyla
du@@
kazandı
is
ülkelerin
dil@@
dığını
hal@@
arada
herhangi
tü@@
sa
to@@
2005
kötü
nda
açıkladı
gi@@
3@@
anayasa
merkezli
slovenya
menin
müdürü
yüzünden
hâlâ
üyeliği
sivil
tut@@
ab@@
bilgi
yandan
açtı
getirdi
olacağını
yaptı
acağını
yetkili
bölgede
serbest
th@@
adım
yolsuzluk
v
masından
kalkınma
konulu
unmik
ç
çık@@
henüz
yar@@
uy@@
çağırdı
öne
sun@@
tarihi
ti
2009
fransa
muhalefet
raporda
bağımsızlık
romen
ülkeler
ic@@
yılı
hakkındaki
kap@@
takdirde
erken
im
halk
os
unda
bak@@
bunların
cumartesi
sahibi
men@@
ülkelerinin
hükümetinin
meleri
festivali
temel
boris
f
bu@@
dur@@
yan@@
al
gör@@
mümkün
ünün
süreci
ıp
nasıl
.@@
komisyon
ci
kan@@
yardımcı
kentinde
yapan
yolsuzlukla
gösteriyor
doğru
bir@@
ek
ko
kaydetti
yayınlanan
makla
grubu
100
1@@
bölgedeki
görüş@@
küresel
sat@@
2010
türlü
har@@
kostunica
cumhurbaşkanlığı
gerçekleşti
the
vi@@
gerçek
ina
izin
ön@@
zor
indeki
şimdi
başlarında
su@@
açıdan
mahkeme
doğrudan
rehn
ka@@
sonuna
olduğuna
yaşayan
bas@@
başkan
ap@@
temsil
çalışma
haline
parlamento
j
ken
kurulu
suçu
ah@@
karşıya
vergi
40
altına
koruma
tur@@
yıldır
yetkilileri
demokrasi
bul@@
der@@
süren
ik
parlamentosu
ettiğini
ilan
mıştı
hala
spor
verilen
madan
makta
mişti
ülkeden
görülüyor
mevkidaşı
yaş@@
edilmesi
önceki
üçüncü
aralarında
veren
katıl@@
petrol
ser@@
yol@@
başlıca
sekreteri
b92
alı
ış@@
alın@@
i̇talya
proje
üyeleri
ındaki
sözcüsü
beri
gönder@@
kfor
iyle
ötürü
politika
vize
op@@
duyurdu
ilişkileri
agi̇t
as
etmesi
geliyor
i̇nternet
tür
iç@@
ni@@
gerçekleşen
grup
yönetim
ör@@
dönemde
i̇ş
masıyla
dünyanın
ist@@
gir@@
etmeye
ut@@
bırak@@
lar@@
güney
1995
adı
erek
ter
iye
rol
genç
i̇ngiltere
oranında
meden
şirketi
ceza
top@@
ber@@
olmasına
söyle@@
tu@@
mas@@
neden
yarat@@
ta@@
acağı
çek@@
kez
ür@@
ılması
başarılı
hava
getir@@
ım
2003
mal@@
washington
ahtisaari
bundan
oldukça
ılan
doğu
işaret
alacak
akp
pkk
31
af@@
artış
ler@@
he@@
mekle
yas@@
bütçe
hareket
mer@@
ste@@
başına
sırplar
teknik
man
mal
or
zoran
bugüne
ov
önde
iyor
lığı
ordu
şiddet
toplantısında
ajansı
din@@
durumu
co@@
öner@@
kişinin
sağlayacak
eulex
üzerindeki
ban@@
bugün
ediliyor
seç@@
euro
bbc
benzer
res@@
sorunu
rus
4@@
dışında
cı
ederek
halkın
mekte
nikola
ülkeye
sözü
ait
geniş
ola@@
konuştu
diler
dönem
çağrısında
ati@@
fa@@
sonraki
ica
kay@@
tı@@
sor@@
net
parçası
tar@@
fi@@
kadın
sahipliği
sar@@
yedi
yeterli
yılından
ük@@
medya
seçimleri
önünde
anlamına
böyle
edildi
dön@@
örgütü
anlaşmanın
siz
undan
konuş@@
tak@@
em@@
kat@@
kuruluşu
lu
üniversitesi
alma
ja
konusundaki
sözlerinde
sekiz
60
kalan
su
veril@@
gerektiği
gu@@
kriz
ünü
tekrar
maliye
tan@@
ilişkiler
kontrol
onun
tal@@
abilir
baş
boru
değiş@@
iler
liderleri
ül@@
vurguladı
diye
ecek
isti@@
so@@
sayısı
birinci
yarış@@
üne
bağ@@
reformları
yılki
asını
ikili
mesinden
sağlamak
şirket
müzakerelerin
sen@@
esi
ülkeyi
tehdit
gü@@
yetkililerin
ama@@
olmayan
belli
enin
1999
yasal
yüzden
ırken
dizi
gümrük
istiyor
tamamen
basescu
terör
asında
tanı@@
i̇stikrar
konu
statü
dir
giderek
mada
sürekli
önem
almak
alman
gerçekleş@@
statüsü
ru@@
x@@
umut
et
medi
min@@
sanader
to
ün@@
berişa
halkı
lo@@
ettiler
güven@@
gül
sal@@
ülkesi
gsyi̇h
ele@@
bin@@
ou@@
ıyorlar
bulunduğu
düş@@
hizmet
i̇çişleri
nden
araştırma
den@@
sini
adet
asının
işbirliğini
maktadır
nihai
ım@@
olmaya
çalışan
ıldı
per@@
yapılması
kaldır@@
kas@@
neredeyse
kr@@
rumen
5@@
ön
b
işle@@
müzakere
yılına
arası
düşün@@
çağrıda
aşırı
halkının
koviç
avrupalı
bakış
sinin
artır@@
kaynak
sistemi
uzlaşma
dır@@
bunlar
dar@@
azınlık
eş@@
avroya
ovski
dikkat
üs@@
500
doğal
madı
nükleer
po@@
del
ila
kürt
yoluyla
200
yasadışı
dpa
dan@@
doğ@@
miloseviç
sürdü
br@@
altın
asına
büyükelçisi
karadziç
seçimler
soruşturma
has@@
dılar
ia
sağlan@@
tarım
öncesinde
aya
başar@@
komutanı
mı
yılda
başında
emekli
tartış@@
masında
sel
jan@@
memnuniyetle
adayı
büyüme
oluştur@@
silahlı
verildi
hemen
inan@@
maması
duy@@
hiç
toplumun
yaz
atlantik
ilerle@@
söylediler
temsilcisi
yen
destekle@@
uygulan@@
etme@@
olsa
olası
sırada
yat@@
geliş@@
başla@@
karşılaş@@
lı@@
programı
sürecinin
liği
giden
ndan
olmadığı
...
madığını
planı
talep
ölçüde
fe@@
düzenlediği
enstitüsü
ağ@@
gruevski
hukuk
koalisyon
yüz@@
recep
kesin
miyor
bizim
jovanoviç
son@@
ır@@
alar
hedef
dini
geçir@@
görevi
ilerin
olabilir
ordusu
ans@@
binlerce
oranı
1990
anlaşmaya
liderler
desteği
gücü
güvence
alanında
du
tra@@
fil@@
general
stratejik
tayyip
çi
ponte
çalışıyor
çünkü
baskı
istikrar
sız
teşvik
2002
malı
uzmanlar
gaz
pe@@
yugoslav
bilir
ilerinin
sorunları
suçla@@
öte
onu
zira
iy@@
dıkları
milletvekili
olma@@
potansiyel
git@@
defa
değerlendir@@
kapat@@
ılmış
ız
iktidar
çıktı
avusturya
for@@
isim
partinin
banka
sürüyor
ticari
tin
engel
sev@@
han@@
kendisini
müslüman
partisinin
tanım@@
ali
olma
van@@
bölgenin
operasyon@@
sonuç
yaşam
gösteren
olup
zarar
ediyorlar
ortadan
geçiş
yer@@
8@@
taraf
teknoloji
öz@@
gerek
koy@@
kır@@
bor@@
dağ@@
malarını
mediğini
ni
olumsuz
2001
uygula@@
gerek@@
sırpların
yaz@@
çevre
artan
gen@@
na@@
sel@@
özelleştirme
ş
eleştir@@
mediği
hızlı
kor@@
dava
sür@@
çocuk
dav@@
civarında
kesimi
can@@
kültürel
pan@@
planlıyor
sürecini
vo@@
yapıyor
kaçak
kol@@
sağla@@
2011
yak@@
uygulama
birlik
elçisi
olimpiyat
luk
temsilciler
dır
ratko
us
üye@@
girişim@@
polisi
üyeliğine
bal@@
ho@@
insanların
başlat@@
bur@@
bölgesi
ile@@
plan@@
boz@@
madalya
uz@@
yapıl@@
ih@@
yakında
ısrar
hattı
kaldı
ger@@
günlerde
yorum@@
madığı
söyleyerek
7@@
mesiyle
silah
temsilci
açıkla@@
gazetecilere
geçici
lik@@
uyuşturucu
yapacak
yapmak
ıla@@
bekliyor
gotovina
söylüyorlar
tepki
derneği
i̇ngiliz
projenin
takım
teşkil
uyla
alan@@
macaristan
olli
onayladı
yen@@
mit@@
toplantı
anlaş@@
yanlısı
yardım@@
abileceğini
acil
dokuz
müzakereleri
partiler
yolu
dra@@
görüşme
ip
aların
isteyen
sosyalist
faaliyet
if@@
ing
sorunlar
merkez@@
yürürlüğe
dek
göz
protesto
verdiler
bazıları
kim@@
libya
görüşmede
i̇ş@@
solda
yönetimi
kan
vadeli
yaptıkları
ır
uyardı
ken@@
kö@@
alınan
finans
new
olasılıkla
rapor
verme
anın
6@@
abil@@
açıldı
solana
üzerinden
ız@@
0@@
anlaşmayı
mede
por@@
vojislav
i̇ran
savun@@
ıs@@
değiştir@@
isinin
mesiç
yal@@
aylık
ski
70
ashdown
gösterdi
iti@@
liderliğindeki
liğini
toplantıda
yerli
beklenen
mon@@
planlanan
işbirliğinin
komitesi
malarına
piyas@@
vur@@
ılıyor
1992
bakanları
katılan
fer@@
geleceği
i̇nsan
roman
cinciç
doğalgaz
ilen
konuda
öl@@
sine
raporunda
abilecek
göz@@
sonucunda
um
büyü@@
tığını
yarak
değer@@
etkili
mak@@
oyun@@
savaş@@
sert
asker
bakan@@
kurul@@
pro@@
çiz@@
rekabet
sır@@
bildirildi
cu@@
eceğini
iddi@@
komşu
sin@@
ada
analistler
bakanlar
lama
yürütülen
çaba
kurulması
olduklarını
tarihli
ihtiyaç
car@@
edeceğini
slobodan
sonuçlar
gelecekte
imi
ladı
birleş@@
davet
kararını
ılmasını
dışı
görün@@
azalt@@
gor@@
layan
maktan
hollanda
srebrenica
tarihleri
ği
i̇srail
reformu
önüne
düşünüyor
gelir
görüşmeler
2000
hak@@
izle@@
ova
somut
yayın@@
çerçevesinde
alarının
meyen
seçimlerin
uygulanması
yay@@
meclisi
ca@@
devletin
gar@@
katkıda
and@@
düzenle@@
fransız
isini
kanıt@@
sonucu
taşıyor
yıl@@
fi
karar@@
sanat
süre@@
ayın
olmakla
tahmin
arşiv
bekle@@
siyaset
ımı
alındı
art@@
dönüş@@
kendisine
yerini
ağı
güç
paylaş@@
ze@@
alması
gözden
ildi
kaç@@
kil@@
300
alarını
gün@@
lanması
yapmaya
meli
ten@@
iade
i̇lk
sp@@
gerçekten
haberlerinde
açıkça
karşılıklı
lük
mesinde
saa
seyahat
hakkı
hayata
her@@
pazar@@
tur
ğini
35
övgüde
80
ayrı
gizli
kı@@
yani
bilecek
kü@@
tedbirler
teklif
tığı
anlar
başvur@@
bileceğini
stk
sürdür@@
telekom
başkanlık
diplomasi
je
nüfus
veriyor
sol@@
alınması
federasyonu
işsizlik
şirketin
diyalog
dü
görüşmelerde
sınır@@
tutuklan@@
ılmasına
kenti
kilit
tarihte
ben
durumun
radikal
vet@@
yanıt
çalışmaları
acağına
altyapı
futbol
hapis
kurulan
mez
nitelendirdi
oranda
sık
kesinlikle
luka
mahkemesiyle
diplomatik
es
ir
mektedir
anlaşmasının
saygı
bek@@
kaydedilen
müzakerelerinin
verecek
alarına
almaya
kız@@
larındaki
oluşturuyor
örgüt
alanda
reformların
seçimlerde
siyle
ere
genişleme
lığa
vermek
değişiklik
olmasını
ortak@@
yayınladığı
üz@@
lardaki
memesi
uygulamaya
zor@@
dolar
stan@@
sürecinde
ağır
dodik
iz
iktidardaki
konuşmasında
muş
gal@@
projesi
ık
ayr@@
mayacağını
toplumsal
york
yık@@
duğu
geleneksel
meyeceğini
müzakereler
olmadan
ortalama
bağımsızlığını
başlattı
gez@@
görülen
insanlar
onları
yılındaki
dayton
esinde
ihtiyacı
i̇talyan
yönde
din
engelle@@
geliştir@@
görev@@
hazır@@
olanak
binden
genişlemeden
kamp@@
podgorica
yla
yıldan
göreve
say@@
zagrep
biz
dr@@
ilmiş
olacaktır
yerek
sağ
suçla
yasanın
güç@@
otur@@
ünden
bat@@
iler@@
istifa
lay@@
papandreu
reformlar
â@@
verilecek
ödülü
annan
komünist
müz@@
olay
seydiu
temsilcileri
adımlar
aldığını
go@@
km
yorum
örneğin
belge@@
belirtiyor
dal@@
mıştır
edilmiş
endişe
inanıyor
kolay
kurma
parti@@
radovan
sektörü
banja
cez@@
etkinlik
ey@@
eyaletin
oluyor
birliğe
dü@@
girişimi
hat@@
kir@@
yıllardır
arnavutlar
ziyareti
ziyarette
eşit
fon@@
imzalanan
makamları
yargılan@@
belirtildi
duyur@@
kapsamlı
sil@@
çabalarını
dikleri
hatta
ilmesi
i̇slam
ren@@
başkanlığını
gerçekleştir@@
olacağı
reddetti
ünde
belirten
deniz
dünyasında
je@@
min
söyleyen
yor
acaktır
dik@@
sisteminin
sözleri
açıl@@
birisi
çin
aki
dev@@
kampanya
scheffer
w
be
ımız
bileceği
devr@@
içindeki
kleri
mor@@
saf@@
vatandaşların
vu@@
ban
bü@@
hoop
jo@@
köy@@
liyor
taraf@@
basında
başa
eceği
görevdeki
isine
ortodoks
tarih
televizyon
imzaladı
sak@@
ft
milletvekilleri
tamamlan@@
şart@@
biraz
cu
idari
kurumları
mıyor
tanın@@
yet@@
haberlerde
imzaladılar
politikası
zamandır
amerikan
boşnak
engel@@
istedi
i̇spanya
tomislav
uyarınca
eylem@@
inşaat
olay@@
sorunun
yı@@
pr@@
saat
tanınmış
şart
alı@@
ara
edilecek
görül@@
kazanan
ren
sürecine
yapma
çabaları
öğretim
ıyordu
9@@
gr@@
hayatını
mir
alara
dayan@@
durumunda
heyeti
ihtilaf@@
lerindeki
sav@@
sayesinde
sch@@
tir@@
ıcı
irken
kararın
okul@@
partilerin
hitaben
ilişkilerin
milliyetçi
analist
edi@@
kler
ık@@
1.@@
abdullah
eylem
lam@@
mekten
rol@@
suç@@
etmeyi
iliyor
moskova
yu
ac
hareketi
mahkemenin
oldukları
ziyaret@@
asyon
birliğin
savaşı
bize
ilerini
oran@@
partileri
90
borç
genişle@@
ilgi
mis@@
pet@@
taş@@
değer
dığına
madde@@
terk
yıllarda
alarak
bölgesinde
dağıt@@
dolarlık
dıktan
gö@@
ilere
mücadelede
tik@@
erkek
fiyat@@
haberlere
herkes
mayan
od@@
adil
belgede
dragan
ilerine
istediğini
müzakerelerini
sti@@
ıdır
bank
belediye@@
fir@@
yaşan@@
dık
miz
miştir
sürecin
yakalan@@
eviç
gecik@@
kab@@
lü@@
up
değişiklikler
getirmek
ip@@
lerdeki
pol@@
suriye
cer@@
kad@@
yayın
çatış@@
etkile@@
kısmı
nite@@
sağlama
tamamla@@
tik
durum@@
gazeteci
mesele@@
örgüt@@
öğren@@
afganistan
araştır@@
başlayan
hedef@@
ilerden
imzalandı
taraflı
alarında
bilmesi
etk@@
geldiler
getiren
kut@@
len
şehir
aile
biçimde
hay@@
hukukun
sağda
toplantısı
ödül
soruştur@@
öngörülüyor
özgür
ıyoruz
ben@@
girişim
ri
vardı
yapacağı
yaşam@@
bunları
göre@@
ihlal
ses@@
siz@@
davran@@
dik
gitti
gra@@
indir@@
nikoliç
tasar@@
voa
x
emin
i̇gor
kaybet@@
ran@@
çek
bildiride
gaz@@
zar@@
ğinin
fatmir
il
belirtiliyor
durdur@@
geldiğini
katılmak
sız@@
dünyası
eri
eşit@@
adriyatik
etki
sergi
toplum@@
ulaştırma
ılacak
ciç
eli
iv@@
kamuoyu
onaylan@@
oto@@
sayısının
sundu
yanında
bütünleşme
destek@@
gerçekleşecek
işi
kam@@
lığını
yıla
biri@@
görüşmek
güvenli
hedefi
içer@@
içişleri
sto@@
toprak
zamanı
can
krizin
kuruluş@@
özelleştir@@
kurtarma
may@@
sinde
ton
eli@@
iliği
lü
malara
mir@@
onlara
sorumlusu
zrvenkovski
ülkelerine
grubun
koş@@
pl@@
sali
verdiğini
üretim
ğine
şartları
bağış@@
bildirdi
ge
görüyor
hav@@
kararlı
suz
terörle
vladimir
üyelerinin
abileceği
men
milli
nüfusun
puan
röportajda
tiç
çoğunluğu
gazetesinin
görünüyor
pat@@
uzak
birçok
ha
ülkelere
şirket@@
kalma
kaydet@@
las@@
rapor@@
seviye@@
sonu
taşı@@
tılar
uyar@@
verilmesi
şeyi
amacı
kişilerin
kop@@
tri@@
uygulanan
bakanlık
bununla
program@@
150
400
dayalı
dur
duğunu
getiriyor
lanıyor
meler
dj@@
durumdaki
ju@@
misyonu
olursa
program
sonuçları
tiyatro
ılığı
başkanlığı
gazetesine
hu@@
ifadesi
liberal
viyana
öğrenci
karamanlis
maların
ohri
olasılığı
takımı
yazar
yönetmen
önceden
2012
aday@@
don@@
tek@@
ünlü
ist
kaçakçılığı
lamak
maz@@
müzik
oğlu
uyarıda
1991
açıklama
başlayacak
goran
karmaşık
malıdır
çe
ayrıl@@
belge
bölünmüş
ederken
hak
kanal@@
kara
koalisyonu
memiş
mini
sektör@@
val@@
yön@@
18@@
entegrasyon
karış@@
uyor
uş@@
bel@@
istikrarı
jeremiç
memnun
mitrovica
vuk
am
and
görevden
haberine
id@@
kuş@@
raporu
süredir
yaklaş@@
cen@@
con@@
düşünüyorum
etmekle
gelir@@
güvenliği
haşim
mev@@
uzman
yakınlarındaki
yalı
anlaşmasını
birleşik
cı@@
direktörü
dis@@
düzeyde
sü@@
20@@
adına
bölge@@
getiril@@
halk@@
onayla@@
rfe
saldırı@@
yor@@
açık@@
işe
ke
pap@@
rl
yük@@
bloğun
dir@@
geçerli
pri@@
usu
za
çoğunluk
çöz@@
ısı
dim
duyduğu
firması
ikna
mayacak
minin
oluş@@
polonya
sürece
süreç
tiği
toplan@@
toplu
yatırım@@
yöneti@@
zorlu
barroso
bilgisayar
cek
derecede
görüş
onların
sfor
bula@@
dış@@
haberleşme
iyileş@@
kurumsal
olsun
belirle@@
gıda
hayal
kaz@@
seçimlerinde
güven
iyileştir@@
ton@@
döneminde
gerekse
giriş@@
it
karşıla@@
melerini
özgürlüğü
1998
altındaki
ff@@
sigara
tasarruf
tutum@@
altını
beklen@@
elinde
filmi
kaf@@
kaydedil@@
kes@@
kupası
merkezinde
oy@@
pas@@
sanayi
verici
hazırlan@@
ic
ihracat@@
itibaren
linda
yapmayı
askıya
tas@@
ulması
van
vermeye
başsavcısı
gi
moldova
takım@@
yoğun
ısının
hükümete
ki@@
kları
konuyla
korunması
kt@@
sürecek
yaygın
başarı
biliyor
hazırla@@
osu
tarih@@
umu
çekti
bildiriliyor
görüşündeler
muhalefetteki
referandum
sağ@@
üreti@@
arı
başlaması
dolu
milorad
asla
duruş@@
düşür@@
görevli
maz
tedbirleri
telefon
tır@@
yüksel@@
alarda
bölümü
ülke@@
artırmak
ef@@
noel
resmen
sağlayan
öde@@
öncesi
000
dikten
dire@@
hazırlanan
liğinin
pu@@
sonrası
taşıyan
tehlikeye
yüzlerce
kimse
malar
rolü
traian
ahmet
arz@@
i̇ttifak
sağlay@@
siyasiler
sonlarında
yorgo
çevre@@
ülkelerde
artırma
açılan
mahkemeye
noktası
ona
str@@
tartışma
yetkililerle
0,@@
düzenlendi
süreç@@
toplumu
viç
yu@@
önlemek
şimdiye
istikrarlı
mamış
zaten
çev@@
4,@@
beta
ide
mut@@
no@@
satış@@
ulaştı
45
acaklar
aldılar
cep
dığında
george
sal
seçimlere
ulu@@
yardımı
çağrısı
düzenledi
gelecekteki
ikisi
lenen
maç@@
paul
profesyonel
reform@@
turist
yetkilisi
yordu
üst@@
derhal
fikir
geçti
görmek
reddet@@
sorunların
yasak@@
çe@@
ıyı
şüphe@@
faz@@
gerçekleştirilen
tv
undaki
çağdaş
çözül@@
fo@@
harekete
ilerle
ilmesine
melidir
sanat@@
sok@@
tespit
vak@@
vermesi
zaman@@
öden@@
üstlen@@
ıldığını
birinin
met@@
yavaş
çağır@@
bölün@@
kov@@
kurum@@
seviyede
yet
ğinden
asyon@@
bakanlığının
bildir@@
der
georgi
kişisel
meyecek
şunları
gazetesi
hisse@@
kişiler
misyon@@
nı
tutukla@@
diğine
eye
açtığı
bra@@
bush
düşüş
hareket@@
hr@@
ilgilen@@
işbirliğine
kov
lanan
yapması
yorlar
çalışmaya
ülkelerden
branko
diklerini
ec@@
karşılan@@
kent
likleri
polisin
yanlış
yasayı
zafer
ıldığı
aktif
bi
bulundular
doğruladı
sağlanması
tariceanu
kendisi
lajcak
mahkemesinin
rakam
va
ıy@@
antonio
ba
bekleyen
gider@@
hdz
kın@@
lju@@
müzakerelere
müzakerelerine
parvanov
sektöründe
eur@@
istiyoruz
liğe
operasyon
popüler
radiç
tatil
tercih
tim
çal@@
üyor
ısına
2,@@
ara@@
belirlen@@
görevini
korun@@
koşul@@
kuvvetleri
let@@
sıkı
ket@@
ıydı
görüşmelerin
i̇çin
kıyasla
temas
tiğini
yeşil
örnek
antik
ebrd
götür@@
okul
plan
üniversite
ışı
festival
ihracat
yasası
yecek
düzenlenecek
geldiği
i̇n@@
katılma
kendilerini
kişilik
malarının
patla@@
sr@@
yon
üre@@
açıklamasında
düzenleme
ifade@@
i̇sviçre
kültür@@
olanağı
ıma
akdeniz
bank@@
bri@@
dikkate
gre@@
halka
nehri
suçlu
süresi
teşkilat@@
alanlarda
cak@@
enflasyon
fırsat
gazete@@
ilerinden
iye@@
karadağlı
karşıtı
kıs@@
lendi
mesele
sağlam
spor@@
ular@@
aile@@
cev@@
edin@@
getirilmesi
karadaku
krizi
tartışmalı
75
edeme@@
katı
benim
dev
dıklarını
hız@@
ili@@
yılının
çab@@
öldür@@
ıyorum
5,@@
acağız
karşıladı
layacak
maaş
pre@@
tes@@
ör
ük
bizi
edip
incele@@
i̇vo
koru@@
programına
roman@@
tür@@
uzat@@
,@@
ali@@
amerika
londra
sağladı
standartlarına
sunduğu
ış
ada@@
ceğini
müzesi
suçlanan
uğra@@
vas@@
yılları
ça
çaplı
asıyla
bro@@
bölgeye
diz@@
girdi
grup@@
luğu
sloven
sözde
fran@@
haber@@
ilecek
katılıyor
müş
schengen
sonuç@@
vatandaş@@
üyeliğinin
ankete
atılmış
ayındaki
becer@@
ince
kalacak
melerine
mülteci
sefer@@
seçmenlerin
ukrayna
vatandaşları
amadı
bilmek
ihal@@
i̇yi
laştır@@
mahkemesine
odaklan@@
organ@@
ımızı
ds
ede@@
ekonominin
haberlerine
heyet
hızlandır@@
karadeniz
karşılığında
nis
sağlıyor
vazgeç@@
yararlan@@
yasaları
6,@@
alar@@
anayasal
belirgin
bit@@
etkilen@@
tarafı
georgiev
kurumlar
sorumluluk
tir
uyorlar
öngören
ilmesini
milan
sahne@@
savunuyor
stipe
teklif@@
devleti
ekonomisi
göç
güçlendir@@
idi
kaydettiği
kentin
kontrol@@
seçmen
silah@@
sözlerini
sık@@
tti
yapıldı
şartlar
alanlarında
fazlası
i̇şbirliği
kav@@
olduğundan
sı
çabalarına
üçte
ılmasının
ıt@@
55
atan@@
bulmak
edile@@
ere@@
eğlence
gazeteciler
iyorlar
javier
korumak
kurumlarının
leme
mesaj
tır
yapı@@
çerçeve
dördüncü
etmiş
lıkları
müdahale
re
tarihinde
vatandaşlar
çözüme
önerilen
şeyin
azal@@
hesap@@
kaynağı
lat@@
nedeni
rad@@
seçil@@
sözleş@@
sırasıyla
çı
şeklindeki
14@@
bazda
birini
cıları
fin@@
fr@@
güçleri
ince@@
lık@@
ort@@
pla@@
rot@@
santral@@
tepk@@
çekil@@
ğin
beklediğini
borç@@
buckovski
inci
mayla
nün
prosedür@@
radyosu
tem@@
çalışması
çift@@
özgürlük
ıda
3,@@
başı
ch
daire@@
dönemi
etkinlikte
geç
insanları
işleri
kent@@
kuzey@@
ros@@
tah@@
tarafın
dı@@
ece@@
euobserver
gördüğü
katkı
soykırım
sı@@
temsilc@@
önünü
ani
artırılması
diplomat
gele@@
hizmetleri
inc@@
katılım@@
kentindeki
larken
leş@@
nak@@
talat
temaslarda
bay@@
görüşmesi
içeren
karş@@
kaçır@@
kilometre
liste@@
news
nik
novi
ortasında
planını
yeceğini
ılı
15@@
aktar@@
almayı
idare
kaçın@@
macar
martti
tıp
kork@@
kullanılacak
lıyor
nüfusunun
tamamlanması
ödülünü
başlay@@
bilin@@
birimi
duyulan
düğünü
etmesini
geliştirme
ing@@
ivo
katıla@@
kritik
kul@@
liğin
ortada
sandalye
tel
ula@@
örgütün
şampiyon@@
şim@@
afrika
ces@@
diğinde
getirme
haklarını
kurmak
liman@@
lığın
normal
rapora
rece@@
suçladı
zayıf
çapında
bulma
büyükelçiliği
geli@@
genelinde
kom@@
landı
olabileceğini
selanik
suz@@
yaşadığı
yaşıyor
yetkililere
önündeki
ayrıntılı
açan
açılış
bar
bulunduğunu
final@@
gan@@
gelen@@
kilis@@
kitap
laş@@
ısını
bankacılık
idar@@
insan@@
kostas
mensuplarına
pay@@
petersen
telefonu
temel@@
ulan
şirketler
aj@@
düzenli
etmesine
güney@@
hayat@@
ili
i̇s@@
mekaniz@@
parlamentonun
sermaye
yakın@@
yolundaki
ğın
şansı
bilinen
esinin
kabine
ndeki
sah@@
siç
teşkilatı
verilere
şüpheli
adını
alındığında
araç
asker@@
batılı
bhf
etkin
iptal
katıldığı
kos@@
liğine
pa@@
paris
uluyor
çocuklar
arkadaş@@
aylarda
bağış
erdi
ga
jessen
mesaj@@
pop@@
saldır@@
tanık
toplantıya
cılık
değildir
hukuki
yetk@@
yoruz
ço@@
duyuruda
lider@@
makamlarının
meyeceği
mez@@
mine
nokt@@
seçildi
siyaset@@
zengin
alternatif
arab@@
ekliyor
hasani
international
rugova
süreyle
acı
aslında
asyonu
diğer@@
dolayısıyla
ebilir
kararl@@
kısmını
minde
of
ok@@
olmayı
olur
türk@@
ur
ydi
ötesi
ülkelerinde
anla@@
co
dım
edilemez
hedefine
inanıyorum
i̇sveç
metre
onlar
yan
üni@@
asya
blo@@
davanın
davutoğlu
gösterdiği
ig@@
ime
maruz
radyo
tuna
ışık
etkisi
etmişti
eğ@@
istihdam
katılımı
kra@@
ledi
merkel
sayısını
vere@@
120
alınacak
bana
birleştir@@
jan
kaydedildi
lıklar
mek@@
üyeliğini
anket@@
belçika
cezası
cukanoviç
elçi
kadınlar
kuruluş
kuzeydeki
saldırı
yansıt@@
çıkıyor
adan
başkan@@
dp
dünyada
faaliyetleri
fon
kriz@@
kıyı
lenmesi
osmanlı
ou
planlarını
sahne
seçim@@
sistem
ska
yetki
ziyaretinde
ad
bulunarak
dolaş@@
doğrultusunda
kararının
mamız
mayın
yineledi
yürüt@@
ıya
600
cor@@
devlet@@
iletişim
işlenen
kalkın@@
kat
komiseri
lendir@@
sistem@@
vmro
zan@@
ödeme@@
örne@@
şampiyonası
belirt@@
genelde
genelkurmay
inşası
i̇kinci
konuşma
liderlerinin
pen@@
yerleştir@@
yetkil@@
ytd
zam
öncelik
aktarılan
alarından
avusturyalı
cısı
edilmesini
gösterdiğini
gücünün
katılması
liderlerin
psd
10@@
bulunması
cumhurbaşkanının
dak@@
düzenlen@@
gelişme
gruplar
ra
sağlamaya
çağr@@
önle@@
blic
borisov
firma
ku
kurulacak
leştir@@
mül@@
sdp
uzman@@
yonu
13@@
adanın
boykot
ceviç
etkinliğe
gda
i̇l@@
kalıyor
katılacak
kullanma
mezar@@
of@@
uyum
yapıcı
yıllar
alarıyla
ağır@@
derin
fırsatı
görüşünde
istihbarat
josipoviç
konular
kuvvet@@
sayıl@@
toplantı@@
uz
çıkardı
ılık@@
daydı
konferansı
konsey
kış
mah@@
olimpiyat@@
pos@@
zirvesinde
250
alanındaki
düzen@@
ede
ediyoruz
fonu
inde@@
miroslav
müşter@@
sofia
sorununun
standartları
yanıt@@
yurtdışında
asından
bah@@
berlin
euroluk
eğilim@@
hoş@@
ici
ihraç
kaybetti
kurtar@@
tab@@
tutuklandı
verimli
çevir@@
avantaj@@
başlangıçta
başlatma
deneyim@@
diğ@@
ga@@
geçmiş@@
gil@@
hazırladığı
hizmet@@
ima@@
imza
iyordu
kısmen
muştu
olmaları
sl@@
tor@@
uyumlu
yapım@@
çalışmalarını
ade@@
aj
cr@@
cumhuriyet@@
dimitris
düğü
dışındaki
edildiği
mey@@
onay@@
tedbir
uzmanları
üçlü
şefi
açıklamaya
hakim
kaldırılması
kurumların
toprak@@
we@@
çekiyor
adli
anların
açığı
eleştirdi
kilisesi
kiç
klerini
maaş@@
sokak@@
sorununa
öğrenciler
ğiz
arac@@
asındaki
belirli
ck
cumhuriyet
darbe
dinkiç
ekonomisinin
erişim
finanse
kurum
oyla@@
oyu
stratej@@
vatandaşlarının
yolda
çerçev@@
üm@@
şirketleri
alarla
dondur@@
ene
gece
gos@@
gören
kaybe@@
kazandır@@
kutla@@
olağanüstü
çoğunlukla
65
ilişk@@
isinde
kaynakları
kendilerine
kullanılan
luk@@
mecliste
neler
savcılar
stefan
talep@@
yükümlülüklerini
ayır@@
beş@@
dar
dpmne
kadınların
katılmaya
med@@
olayları
strateji
tre@@
umutları
yaparak
ğe
şeffaflık
1,5
800
ayda
bre@@
esini
geleceğini
gençler
görü@@
mahke@@
mu
sandık
sayısında
tavsiye
uldu
yakal@@
yapılanma
üreticisi
eşi
finlandiya
günleri
kayıp
kiş@@
leniyor
mes@@
niyet@@
olduğunda
tin@@
tutuklama
yıldönümü
16@@
asıl
cılar
değişiklikleri
dss
duruma
enler
geçmişte
gözaltına
ilke@@
izni
kala
katliam@@
kosor
laura
müdahal@@
sabit
sınırları
til@@
yönetme@@
abilmesi
binin
cnn
emniyet
eufor
güzel
ine@@
kullanıl@@
oyuncu
ven@@
zamanlar
şartlarını
amaç@@
carla
do
eler
işten
kesim@@
kötüye
mahkum
müzakerelerde
uzmanı
vis@@
üniversite@@
ans
ceku
değişim
ertele@@
fiyat
gelerek
halen
izlen@@
ji
kişiyi
lav
mc@@
mostar
müdür@@
planladığını
sorunlara
söz@@
çağ@@
ücret@@
üret@@
üyle
ğı
ınız
başarısız
davası
desteklemek
ihtilafı
izleme
kampany@@
olmasının
planla@@
sürdürüyor
zam@@
ırsa
1,@@
acaklarını
anlamda
dün@@
eksik@@
gürcistan
herkesin
kış@@
mehmet
operasyonu
slovakya
sınırlı
tele@@
yapısal
çı@@
şimdiden
belirttiler
draskoviç
ent
eğiti@@
geride
go
idir
iniz
jiç
koydu
lis@@
markoviç
neden@@
net@@
olimpiyatları
planlanıyor
teknoloj@@
yeri
çocukların
şirketlerin
başbakan@@
başlıklı
beyaz
destekleme
diğimiz
faiz
getirmesi
gh@@
imiz
itiraz@@
konferans
konser
miktar@@
sürede
tehlikeli
yenler
çocuk@@
önleme
özel@@
üretimi
̇@@
alırken
atı
bla@@
büyük@@
ceği
diğerleri
esine
gazprom
jose
kavuş@@
medi@@
olduğunun
satış
sürdürülebilir
tav@@
uzak@@
yağ@@
şar@@
0
avronun
evi
fas@@
giriş
görüldü
kuruldu
mat@@
paddy
sunulan
ulus@@
verece@@
demiryolu
erkekler
fiyatları
gerçek@@
kl@@
ktan
olasılığını
stanişev
tutul@@
belki
fark
gelmesi
görüştü
i̇slamcı
kampanyası
karaciç
kayıt
kayıtlı
kazandığı
kdv
madde
malıyız
olmaması
rama
seçimlerden
urken
uğraş@@
vizesiz
yaş
32
amaçlayan
bloomberg
dnevnik
konular@@
oranının
personel
tabii
tanınan
vatandaşı
yazar@@
are@@
daire
dayanarak
kolaylaştır@@
nov@@
pasok
rakam@@
sahip@@
umuyor
verg@@
yakınlarında
zanlısı
aykırı
boş@@
değişiklik@@
döviz
düştü
entegrasyonu
harek@@
hol@@
içine
jaap
kanıt
milo
pasaport@@
sorun@@
tamamladı
arama
bekliyoruz
biraraya
danışmanlık
değerlendirme
ener@@
fu@@
işler
karara
kla
konum@@
miz@@
oranla
ordunun
sad
va@@
ademi
alardan
au@@
bence
dol@@
görevine
gündeme
kıbrıslı
let
makam@@
meselesi
tavsiye@@
tehlike@@
vek@@
yapımı
yollarını
anlaşmaz@@
birinde
bulunmak
dönüş
gerekçe
imzalan@@
istediği
koalisyon@@
mayacağı
mücadele@@
standartlarını
uları
yayınla@@
yin@@
yoksa
şe@@
9,@@
bol@@
internet
itiraz
japonya
kimlik
lemek
luğ@@
modern
onaylanması
oyunları
politi@@
tiğ@@
vereceğini
vererek
yaptığını
anadolu
bayram
bağımsızlığı
bilece@@
buradaki
bünyesinde
dayanan
getirdiği
iddiaları
ker@@
madal@@
sınırı
taçi
zi
önerdi
ıları
ılığ@@
artması
artıyor
bilişim
görüşmeleri
konuları
mediapool
ndaki
nitelendir@@
tip
umutlarını
yayınladı
şarkı@@
7,@@
ante
bütün@@
cağını
demokratlar
ekibi
günlüğü
ian
karşılık
kasabasında
katılımcılar
lo
olaylar
parlamentoda
parç@@
planının
rejiminin
saatlerde
sanatçı
suçlanıyor
sınıf@@
tay@@
televizyon@@
the@@
umduğunu
çoğunun
önemini
34
aranan
dos@@
dönemine
fuarı
fırsat@@
hangi
konferansta
kovski
nastase
sayg@@
sek@@
sektörünün
sey@@
sinden
sö@@
sürerek
uluğ@@
yasaların
yece@@
bakanlığından
cezalandır@@
cusu
eni
gol@@
gümüş
ithalat@@
lerken
maddi
michael
split
topla@@
yapıla@@
yatırımcılar
yaşay@@
zirvede
öldürül@@
chp
derece@@
düzeyinde
elektronik
emlak
giz@@
gu
haradinay
ilişkilerini
kâr
likler
lük@@
marina
meş@@
sitesi
statüsünü
yerleş@@
almış
cezasına
cinayet@@
ciocoiu
doğru@@
dünyasından
gerektiğine
getirdiler
grupları
iyimser
kapan@@
lığına
nabucco
oylama
paketi
plana
planları
sen
zafer@@
öğre@@
açıklanan
ber
ciler
fotoğraf
gelişmiş
görevlisi
hüküm@@
isim@@
lenmiş
ortamı
politik@@
sak
tatbikat@@
terörist
yolları
yon@@
ülkelerinden
araç@@
arnavutların
azından
bağlantılı
biçim@@
bölüm@@
denetim
hizmete
kaide
kategor@@
landır@@
larımız
not@@
sh@@
sistemini
siyasilerin
turnuv@@
yapmış
çalışmalarının
ündeki
avrodan
açıyor
bütçe@@
faaliyet@@
gerçekleştirdi
insanın
kapasite@@
konser@@
liğinde
nedenle
olayı
roma
savcı
sektör
unesco
veriliyor
yasalar
şek@@
adım@@
açıklan@@
beklenti@@
bulunacak
cının
dil
işlem@@
memuru
süreli
ul
yetersiz
yürüten
çalışmalar
çö@@
alanı
açılması
daciç
ders
fikir@@
iddiasıyla
kondu
olmaktan
olmuş
onay
projeler
seviyesinde
sorununu
tık
vatandaşlarına
yaşında
yerde
ze
çözüm@@
36
ankette
arken
dahası
diç
dığından
kar
konumunda
lj@@
ljajiç
mustafa
mış@@
oluşuyor
santrali
sergey
yoksul
zanlı
ödül@@
şiddetli
,5
askerleri
başkenti
başlatılan
destekleyen
ettikleri
göstererek
imizi
kapsayan
lılar
manuel
tartışmalar
uçak@@
zirvesi
çoktan
alt
anlaşmazlık
cıların
desteğini
güçlerinin
hasar
havayolu
idaresi
işaret@@
memiz
olurken
one
pal@@
projeleri
sandalye@@
taci
tarihinin
aleyhinde
anlat@@
arap
ayına
babacan
blerta
cular@@
del@@
doldur@@
gerekecek
getire@@
hen@@
his@@
ize
olan@@
puan@@
çiler
üstesinden
şeyler
arttı
barışçı
geçirilmesi
i̇z@@
meclisin
olacağına
popescu
projeye
recepi
sığın@@
taşın@@
tü
uk
undp
yiz
önerisini
ğa
adam
cinayet
ediyorum
ertelen@@
hattının
hazırlık
hırvatlar
maden@@
makedon@@
metre@@
oluşturan
refah
ticareti
ucu
unut@@
vel@@
yoksulluk
çalışmalarına
önem@@
700
8,@@
dui
dönüştür@@
emeklilik
euractiv
fe
giy@@
harcam@@
hazırlanıyor
insani
i̇h@@
kaddafi
kaçak@@
kriter@@
kurdu
leşti@@
milletvekillerinin
rekor
yapılmış
zanlı@@
anlaşmada
açı@@
buldu
cül@@
daveti
endi@@
kalıcı
kaçakçılık
komşular@@
nikolovski
paralel
sol
yur@@
öneri
şah@@
adalete
anlaşmalar
avroyu
belirterek
benz@@
birbirine
daimi
deme@@
destekliyor
duğ@@
geliştirilmesi
gri@@
ithal
karşısında
kriterleri
landığı
lüğ@@
sergil@@
tutuk@@
yapma@@
ülkelerle
ürken
abilece@@
azınlıkların
belirsiz
birliğinin
bun@@
hidroelektrik
ilave
işçi
i̇lişkiler
lev@@
likle
muamele
siyas@@
sürmekte
yo@@
çevr@@
ılabilir
abilmek
aracılığıyla
cam@@
düşüş@@
eksikliği
eti
garanti
görüşmelere
itibarıyla
kararına
kurban@@
miktarda
milletvekil@@
odası
referandum@@
sizce
stratejisi
toplumunun
vakfı
yazarı
çisi
ılar
2013
buluş@@
bür@@
günde
güçlendirme
hepsi
ilerlemeyi
isten@@
kanada
kurumlarına
makfax
ortağı
rak@@
soy@@
sözleşme
tiler
tutumunu
verdikleri
çözmek
üstünlüğü
37
anlaşmazlığı
açacak
bayanlar
halkına
kanun@@
kuruluşları
köprü
olmadı
pav@@
suçlan@@
yarı
çözme
şirketinin
are
bürosu
desteklediğini
hayati
ilerletme
i̇brahim
i̇ttifakın
ldk
meclise
no
ortam
tekrar@@
yasaya
yesi
çözümü
anlaşmaları
bağlantı
bulunuluyor
bunlardan
dz@@
eva
geçmesi
gru@@
haklarının
hedefliyor
hükümetini
komuta
kıy@@
laik
lanmış
mağ@@
memur@@
oran
pi@@
planına
skandal@@
tecek
çizdi
43
ateş@@
bes@@
bıraktı
doğan
faaliyete
geçiril@@
guardian
ham@@
hükümet@@
kapalı
kırsal
mevzu@@
muhalefetin
seçimlerinin
tedbir@@
tro@@
vuyanoviç
yapılmasını
zamanlarda
zamanında
bine
borcu
böylelikle
edilebilir
fena
gençlik
gerçekçi
getirmeye
kaçakç@@
kesi@@
kofi
kre@@
kuz@@
kökenli
lığının
malarda
operatörü
sonucuna
sırplara
tavır
tehdit@@
yaralan@@
yoldan
zi@@
ödeme
ıyor@@
şikayet
33
adam@@
edeceği
ermeni
getirecek
he
ilerek
kos
ktir
lüksemburg
lıkla
miş@@
muhabiri
nu@@
ortaklaşa
planın
sergile@@
takip
vermiş
voyvodina
yum
!
17@@
alt@@
basına
belgradlı
boyut@@
bölgelerde
dolayı
hızla
işsiz
kayıt@@
koşulları
kullanımı
olmayacak
otomobil
sayım@@
toplantının
çıkması
ücret
şartı
askerler
bahse@@
etmeleri
fayda
festivalde
gazete
gidiyor
gire@@
konut
lıklarını
minden
oyla
robert
tat@@
tiyle
tol@@
uluk
yaklaşım@@
yatır@@
yip
yum@@
bet@@
bronz
clinton
gelişmeler
geçirme
kamuoyuna
konuk
mutabakat
orada
ord@@
profesör
rum@@
tesis
tuğ@@
yükselt@@
acakları
bakanlarının
bon@@
büyükelçi
danışmanı
edici
eminim
hastan@@
ilerlemenin
kaya
ker
kurul
mağdur@@
nispeten
oyların
rüşvet
tahmin@@
talebi
tanıt@@
tis
vadede
ven
yolunu
1993
aktardığına
aleksandar
artış@@
bloğa
desteklen@@
düğ@@
dığ@@
eriş@@
eurovision
fır@@
heyet@@
kalan@@
konularda
kuzeyindeki
kısmının
likten
milososki
mısır
putin
saat@@
sahte
sarkozy
sos@@
temiz@@
tesis@@
unsur@@
vatandaş
çözülmesi
çıkarıldı
öncelik@@
örgütünün
1996
46
anket
bastır@@
bölgesindeki
davor
denet@@
dro@@
duyg@@
escu
geleceğe
gerçekleşmesi
giren
halde
lacak
müştü
ob@@
oynadığı
rolünü
seçimlerine
stat@@
yeceği
yse
yönet@@
çalışan@@
çalışmak
akademisi
akis
aksi
anti@@
ete
etmekte
güvenliğini
hafif
hareketin
igor
i̇sti@@
kimsenin
kurulmasını
malarla
mer
oluşturul@@
savc@@
sisteminde
çarptır@@
şey@@
birleştirme
daniel
duk
dığımız
eu@@
far@@
gösteri
hapse
hina
iden
istikrarın
kurban
lilik
liğ@@
milovanoviç
proje@@
rken
sistemine
sizlik
za@@
çabalarının
48
adı@@
anayasaya
cular
denge@@
desteklemeye
diren@@
etkinliği
göstermesi
gür@@
hükümetine
izliyor
performans@@
plus
sistemin
stankoviç
varlığını
&amp;
anayas@@
attı
bakoyanni
birleşme
caz
değişikliği
etkinliklere
gece@@
geçmiş
iydi
kayb@@
kilise
kin@@
krize
kurumu
mahkeme@@
mükemmel
nüfus@@
oğ@@
sdsm
söyleniyor
sürdürdü
tutuklanması
tüm@@
uad
önce@@
amaz
edilmesine
elektri@@
emek
eren
fazlasını
federal
gücünü
işlet@@
jik
kasab@@
mic@@
qu@@
rahat@@
rast@@
sim@@
tehdi@@
tesinin
tirecek
topluma
tören@@
tıbbi
vermeyi
çabuk
ölüm
üyesinin
2.@@
aleyhindeki
başlan@@
durres
elden
faaliyetlerini
gözlemciler
hakkına
ihtilaf
inşa@@
komisyon@@
kontrolü
lüğüne
met
meta
miloşeviç
mizi
mülkiyet
sağladığı
trafik
yatırımı
önlemler
öğrenc@@
ücretsiz
ıtı@@
şarkı
47
bildirdiğine
bölgeyi
dalar
dene@@
gördü
hassas
hizmeti
imha
imi@@
içi
kin
kulü@@
lefkoşe
lerimiz
misyon
performans
projeyi
rice
tıkları
yönetiminin
yüz
zemin
özerklik
ılık
aksine
alacağı
beşinci
cal@@
chi@@
cur@@
elen@@
hissesini
ihlal@@
kapı@@
komisyonun
olanlar
ro
sağlayacağını
sindeki
sinema
site@@
sonuçlara
suçlar
web
üsü
41
44
araştırmalar
ayından
böl@@
canlı
dost@@
enlerin
eyalet
festivalin
görevlendir@@
hayır
ihale
ilik
inter@@
kullanı@@
malardan
malarında
maliyet@@
mektu@@
ofisi
ortadoğu
oyun
programın
ry
yükseldi
çeken
örgütleri
51
ayla
aşırılık
echo
fotoğraf@@
karayolu
koruy@@
lin@@
mia
pfp
rus@@
sever@@
sine@@
sonuçlan@@
sürdürme
yapacağını
yeviç
zivkoviç
öğrenim
ülkelerini
ür
42
açma
bağlan@@
başından
dalg@@
deneti@@
doğum
edildiğini
gerekir
göstermek
işkence
i̇şçi
kart@@
karşılandı
katılımcı
kot@@
kullanarak
obama
ol
oynanan
pak@@
receğini
rejimi
ris@@
seçilen
taraflar
ulan@@
umuz
varılan
yatırımlar
yebilir
zanlının
şebeke@@
ateş
azaltma
dayanıyor
dağı
değin@@
gelişimi
hürriyet
kayak
kesinti@@
kurmaya
larsa
moon
mur@@
savaşın
suikast@@
toplandı
ulaşmak
usaid
yazı
anlaştılar
araba
başkanlığındaki
cezaev@@
deutsche
dular
durumdan
getirdiğini
geçirdi
hedefleri
ice
krasniki
kriterlerini
matik
milyonlarca
muhtemelen
müdür
nebojsa
person@@
sanayii
valentin
zayıf@@
ğim
ılacağını
artışla
ati
beni
bilimsel
com@@
durumunu
döne@@
ilerlemeye
inzko
i̇k@@
i̇li@@
kardeş@@
karşılamak
kesiminde
konularında
melerin
mik@@
miktar
ovska
oynay@@
süreçte
sıcak
sırpları
topi
uların
upi
uç@@
vil@@
yenilen@@
çıkarılması
1000
38
af
amaçlanıyor
anu
avustralya
dor@@
gençlerin
hep@@
hisset@@
kuş
nas@@
oku@@
sözcü
sürdürmeye
umut@@
yerinde
çilerin
ürünleri
ğ
şimdilik
ayrımcılık
barışı
bulundur@@
bunlara
devri@@
donan@@
edebiyat
gazetesinde
grupların
harcan@@
hatır@@
iyimser@@
maktır
mağlup
meseleler
nano
olar@@
pazarlık
sayı@@
tanjug
verilmiş
önemlidir
ayaklan@@
baltal@@
baskı@@
belgeleri
belirti@@
biti@@
deyişle
doğusundaki
dusan
düzel@@
eline
fakültesi
grev@@
hedefleniyor
konferansa
nedir
ovac
raporun
sunuyor
tanık@@
yetkililerinin
çabalar
ğinde
asgari
açılışını
başbakanın
başlangıç
by
cas@@
cü
davada
değişikliklerin
elinden
farkında
finansman
gönderdi
göçmen
haberler
jean
kri@@
microsoft
og@@
olmayacağını
petar
sigorta
sunul@@
temas@@
uygulanmasını
vereceği
yeterince
.com
acağından
başlama
başlatılması
birine
cesaret
depre@@
derne@@
eleri
grubunun
ikiye
iyileştirme
komutan@@
kürdistan
lerdir
makroekonomik
mize
mun@@
st
toplama
tıra@@
uygulamada
yasasını
yönetic@@
yıllarında
çatışmalar
çıkart@@
ölüm@@
öy@@
üp
aktardığı
almasına
açıklaması
başardı
eğitimi
festivale
geçecek
havaalanı
ildiği
i̇statistik
jel@@
kimin
kktc
kosov@@
lim
mağaz@@
merkezinin
miyle
nerede
patri@@
prlenda
rezerv@@
sonbaharda
tarafsız
tazminat
ulacak
yayınlan@@
ülkesinde
2,5
85
arkasında
bağlantı@@
calin
etkil@@
evski
finansman@@
getirildi
gördüğünü
hast@@
lardı
lığ@@
manı
mekan@@
moisiu
sağlaması
soru
subay@@
töreninde
çözüle@@
ürün@@
ılarak
şehir@@
atın
belirleme
cağı
edi
ekip
gerçekleştirdiği
kalması
kişiye
kurtul@@
kutladı
liklerini
maroviç
melere
numaralı
seçimlerini
söylediği
tırman@@
yöne@@
yükümlülük@@
alacağını
atları
bot@@
cuların
düşünce@@
evet
fat@@
fuar@@
ger
imin
ivan
işini
i̇lerleme
jeviç
kesil@@
liman
meyece@@
muhamet
olmuştu
oyna@@
pahalı
projesinin
rakip@@
suçlamaları
turiz@@
tutuyor
uydu
yaklaşım
yolsuzluğa
yönetimindeki
zorunlu
ölç@@
ülmesi
aldıkları
bankanın
birden
bütünleş@@
celiç
cumhurbaşkan@@
fark@@
fikri
göstergesi
hatt@@
hedefini
istiyorlar
paranın
pdk
sanık
sergisi
tribune
turu
çalışanları
çalıştı
çıkar
atıl@@
başlıyor
biliriz
büyüyen
gelmiş
han
iktidara
ita
ite
iyse
işin
i̇spanyol
mektupta
natasa
noktada
oluşturulması
sağlanacak
seçti
sorunlarla
tanıyan
verme@@
yarg@@
yere
yetiş@@
akımı
anal@@
avukat
bos@@
cuları
demokras@@
dolara
fizibilite
hü@@
kaynaklanıyor
koşullar
laşma
mensup
mleri
olduğumuz
oluşturma
sabah
seçmenler
sözc@@
tac@@
tarafların
taşıdığı
tedbirlerin
vlado
yakından
yoksul@@
çalıştığı
1997
abiliyor
alışveriş
azın@@
başarı@@
başsavcı
bilgileri
bölgesine
canlandır@@
def@@
divanı
dokunulmaz@@
egemen
g17
gönderdiği
güvenilir
ilaç
ilerde
istikrara
john
kesim
kitap@@
konuyu
koordinatörü
kısıtla@@
listesinde
malarından
mde
olmasından
organ
orta@@
profesyonel@@
reformlara
risk
sayımı
sefer
sul@@
teşekkür
törende
uma
w.
yaşandı
zanlılarının
zirve
çarp@@
çift
çılar
ülkelerindeki
üş@@
ımızın
ızı
62
acağ@@
amerikalı
anlaşmasına
baskın
bilg@@
bilgiler
bilgilere
bulgar@@
cin@@
demir@@
doktor
düzenlediler
facebook
faydalan@@
futbol@@
gı@@
kalk@@
katılmayı
kim
kullanan
laik@@
liderlik
saldırıları
sayılı
sektöründeki
sektörüne
serg@@
yetkisi
zanlıları
çocukları
balkan@@
başk@@
belir@@
bini
buraya
böylece
desteğiyle
duvar@@
ekip@@
eyalette
forumu
gelecek@@
gereğini
göstermeye
haris
hedeflerine
ie
izledi
i̇van
kavuştur@@
kütüphan@@
ladığı
leyen
olayların
onur@@
oranları
rüzgar
sp
suçl@@
tarihten
tığ@@
ut
vukovar
yatırımları
yöntem@@
çıkarıl@@
öyle
ğimiz
şans@@
şiddetle
anlam@@
ağa
başarısız@@
belirlenen
büyümenin
davaları
diplomat@@
düşen
etkinlik@@
filip
gönüllü
i̇ktidardaki
kalmış
karışık
katıldılar
küç@@
mirko
onar@@
oz@@
paket@@
profesörü
sırayı
tamam@@
törenine
tüketi@@
ucuz
uygulanmasına
yanlar
yanından
yatırımcı
yolsuzluğun
zu@@
önemi
53
dayat@@
dük@@
ettir@@
geoana
hap@@
ide@@
insanlara
kuruluşlarının
lığıyla
meseleleri
ovo
pren@@
savcılık
schilling
sorumluluğunu
sorunlarını
sürdüğü
verilmesini
yardımıyla
yasal@@
yusuf
çifte
üstü
üyeli
alexander
alım
bildiri
değişen
dri@@
dubrovnik
eceğine
ed@@
ekonomist
ermesinden
göç@@
herald
iu
iyileştirilmesi
lanma
muazzam
muhalefet@@
nez@@
nor@@
oturum@@
piyasa
portekiz
sergide
sonuçlarını
standartların
tihiç
uzlaş@@
zeljko
aracı
bağl@@
blok
dakika
dalında
dele@@
derken
etmektedir
etmenin
fik@@
hamle@@
hepimiz
insanlık
kendisinin
meslektaş@@
misyonunun
oyunu
peter
sahipleri
sayıdaki
siniz
toplumlar
vergisi
yapılandır@@
yargı@@
zanlıların
zorla
zvetkoviç
öv@@
adamları
alanları
alev@@
bakanlığına
görevinden
güneş
haftalık
itiraf
iyileşme
işbirliğiyle
kaynaklanan
krizden
oluşturduğu
pekin
risk@@
sekreter
slav@@
stojanovska
tane
tu
ulos
uygulaması
video
yoktur
çıkarlarını
üle@@
üyelerinden
üğ@@
azaltmak
baz@@
başkanları
bireysel
biz@@
denizi
dum
dünyadaki
geçiyor
günler
haklı
hristofiyas
imini
istekli
istikrar@@
iti
konjikusiç
korsan@@
kırıklığına
nataşa
oloji
rü@@
süresinin
sıradan
sığınma
tiyatrosu
topraklarında
ulara
xinhua
yemek
yıllarca
alılar
asi@@
bileceğine
birlik@@
bölgesinin
devredil@@
görevde
ilik@@
kaldığı
kovuştur@@
lıkların
mahkemesinde
payı
pazarına
polis@@
ramazan
ret@@
sur@@
taşımacılık
turkish
yararlı
yola
yoluna
ülkesinden
üyelerine
63
67
agim
ailesinin
akıl@@
almasını
anma
aray@@
başkentinde
dahilinde
doktor@@
esinden
gereği
girmesi
harca@@
iddiana@@
i̇ngilizce
sokak
turizmi
uğ@@
vla@@
yönel@@
yürüttüğü
çısı
ımıza
ırklı
şaşır@@
amacının
arkeologlar
aydan
aydır
des@@
ep@@
gidiş@@
gönderil@@
hi
hiv
id
katkı@@
katılanların
kız
listesinin
medyanın
nüfusu
olduğ@@
sizin
test@@
toplantısına
türkler
uçak
veto
yatırımcıların
çağırdılar
belgenin
bis@@
bozidar
değerinde
ertesi
eşlik
filmin
hayat
heyetinin
heykel@@
kova
kür@@
labus
laması
lübnan
madaki
maliyeti
miyorum
münasebetiyle
müzis@@
ordusunun
paktı
projede
raporunu
saklan@@
taraftan
tatil@@
tes
th
yarar@@
yargıç
yürütül@@
çilik
şüphe
acak@@
arkeoloji
arnavut@@
barbutov
bat
brammertz
denetleme
derecelendirme
diplo@@
düler
ey
gerekçesiyle
gidil@@
hel@@
hüküm
hükümetler
izleyen
işleyen
i̇lgili
klarını
koalisyonunun
koordine
ks
kuvvetler
layık
leşme
mahkum@@
marko
muha@@
norveç
olmalı
rakibi
richard
sap@@
söylen@@
tenis
tif
uyoruz
çatışma
ödülünün
ülkesine
üzer@@
üç@@
amaya
artırdı
artışı
baraj@@
cari
değin
doları
emri
eyi
fail@@
farklılık@@
forum@@
girecek
güçlendirilmesi
indi@@
ister
kararları
ladığını
lıklarının
mahkemeyle
mama
misyonun
nci
olayın
ortam@@
otoyol
planda
planladığı
sorumluluğ@@
soğuk
standartlara
temsil@@
tez@@
ularını
yaralandı
çalışacak
çalıştığını
çekiş@@
alanlar
altyap@@
anayasanın
araz@@
açabilir
başladığı
bilim@@
bölgelerinde
büyükelç@@
deniz@@
devlete
döndü
dür
düzey@@
düzgün
enerj@@
istan
kalı
landığını
menler
nimetz
notunu
parlamentoya
partilerinin
pe
projesine
raporuna
saldırılar
sürüldü
ularının
uncu
vaat@@
vaz@@
yasak
yok@@
yolcu
zamanın
çalışmalar@@
çıkarma
öncelikli
önerisi
üretic@@
ai@@
anne
başkent@@
başlatıldı
düzeni
erini
eğit@@
göl@@
iade@@
i̇ttifaka
i̇vica
jankoviç
kararlılığını
kendini
ket
kuzeyde
lerek
lerimizi
okulu
oldular
pratik
ruhsat@@
sağlanan
sızlık
tutukladı
yapım
yollardan
zamandan
şer@@
54
adaki
adamı
adrian
alınmış
ayak@@
ayakta
bağımsızlığının
bojana
cami@@
dairesinin
dağıtım
değildi
etkileri
euro@@
eğitim@@
füze
geliştirmek
gemi
gen
girişimin
ii
i̇vanoviç
kaldırma
kilometrelik
komite
mimar@@
politikasının
sahası
sivil@@
sunan
suretiyle
televizyonu
uzlaşmaya
yoğunlaş@@
önemlisi
şansını
şarap
00
1.000
alıyorlar
açığını
ağının
belediyesi
belene
belirsiz@@
boyko
burgaz
dimitrova
gelece@@
gergin@@
gidecek
group
hindistan
hükümetle
if
ilişkilerde
iyileştirmek
kalabalık
kral@@
kullanıla@@
kıl@@
lıktan
müttefik@@
pa
polisinin
politikaları
politikasını
seçenek
süleyman
tedavi
toplantıdan
ust@@
welle
yaban@@
yangın@@
yaratmak
yazılım
yoksun
çileri
alınmasını
biyo@@
bütçesi
dans
destekli
desteğin
devletleri
eyalet@@
eyaletteki
geçerek
haklarına
hep
ion
itsa
kademeli
klerine
kullandı
kırmızı
layarak
mektir
olanak@@
otel
sakin@@
sek
silayciç
sta@@
taban@@
yayı
yazılı
öncelikleri
üm
ısında
acağım
alek@@
amaçlıyor
atılan
benzeri
bulunmadığını
cel@@
cep@@
davayı
dey@@
emek@@
geleni
geril@@
görevlerini
hır@@
hıristiyan
ithalat
i̇rlanda
koordinasyon
kurumlara
lin
ner
press
rakamın
tartışmaya
yaklaşan
yaptılar
yarısı
zengin@@
çekmek
çözümün
özgürlük@@
ılığına
66
cak
cihaz@@
davaların
des
desteklenmesi
düşünce
ekonomiyi
festivalinde
görüşlerini
gösterge@@
hakkını
haz@@
imzalanması
i̇nsanlar
kapsam@@
kta
kullanıyor
ley
lukiç
luğunu
müş@@
olabileceği
onaylanan
protokol@@
ras@@
sadık
sergilen@@
sunuldu
tikleri
ılıp
ınca
49
amaması
avro@@
bahar
bankalar
başlamasından
beklendiği
doğalgaz@@
dıracak
fabrikası
fikrini
getiri@@
gözlemc@@
güneyindeki
harit@@
ilgisi
isinden
korum@@
köken@@
las
los
müzakere@@
olmay@@
personeli
programının
sektörünü
ster@@
suçların
taşıdığını
uğrat@@
yarım
yarısında
yasalara
yöneticisi
yüksek@@
örneği
ülkeyle
0.000
ailesi
amayacağını
askerlerinin
atıfta
azalma
bazılarının
bom@@
daily
danimarka
deprem
diğinden
dna
doğur@@
düzinelerce
düşman@@
edece@@
film@@
gazetec@@
getirerek
gurur
gündeminde
hayvan@@
hızlandırma
ihtiyac@@
istiyorum
işlev@@
karşılayan
kostov
mam@@
melerinin
milletvekillerine
milliyet@@
proj@@
sürpriz
tarihe
taş
tiren
tütün
tık@@
usunun
vatandaşlara
verheugen
çalışıyorlar
şeffaf
şimşek
56
57
amaç
aram@@
belirlenmiş
bölümünü
david
dönemin
erecek
eskiden
ez@@
felaket@@
fiziksel
fonlar
gazetecilerin
genç@@
ilişki
işleme
i̇m@@
kabul@@
kaldığını
kanalı
kararda
kayıp@@
kurucu
küre@@
kısıt@@
malların
menkul
nüfuz@@
olmas@@
radio
sizliği
sorunla
suçun
tarafının
tutmak
tuttur@@
tutum
vski
yürü@@
çıkarlarına
öğrencilerin
şampiyonu
şarkıcı
anayasası
arasına
ayhan
azerbaycan
endişelerini
esindeki
fatur@@
frattini
gecesi
gelişim
haftalarda
ham
harici
iste
i̇ttifakı
katılımını
kemal
koordin@@
kurucusu
lilik@@
listesine
ora
orman
otel@@
oturum
pra@@
puanla
servis@@
sını
talebinde
tartışmalara
tehdidi
tel@@
ticaret@@
uyordu
varan
vardır
yaptı@@
yapı
yasasının
yete
yür@@
çıkarmak
öncelikle
ıza
39
alma@@
alıp
angela
arabuluculuk
arşiv@@
bazen
belgeyi
bilgilendir@@
biriydi
devi
dijital
enerjisi
fre@@
gelenek@@
geçersiz
gâ@@
hac@@
kredisi
kurumlarını
kuvvetlerinin
larımızı
laştırma
liğindeki
masa
meliyiz
mücadelenin
nitelendiren
otori@@
reddedil@@
soren
sorumluluğu
sunulacak
suçlarıyla
sın@@
turistler
yasada
yavaş@@
çelik
çıkacak
şikayet@@
şube@@
12@@
52
adıyla
almıştı
açıklamasına
aşağı
başladığını
berg
cefta
dejan
derin@@
eleştirilere
geçirmek
gj@@
görülmemiş
gününe
haklar
hayatta
heye@@
inanıyorlar
iri
kentine
kurulmasına
lan
liç
makal@@
marija
memurları
mler
nakil
orman@@
papa
polise
programları
sin
soruna
sürmesi
tiri@@
tis@@
toplanan
yardımc@@
yaşadı@@
yetle
yıldız@@
yıldızı
öğretmen@@
üyelerini
şi
1989
alandaki
amaz@@
anı
basınında
bina
bombalı
dora
ecektir
fiyatı
gerb
göze@@
hakim@@
hayal@@
imzal@@
i̇ktidar
jadranka
karşılay@@
kural@@
laz@@
lili@@
mizin
müfettiş@@
müze
nihayet
olmasa
pazarı
prizren
rekabet@@
tuzla
zarar@@
çağıran
çıkarılan
ürün
ılığın
adımları
ayar@@
biç
ble@@
blog@@
cadde@@
cazip
ebileceğini
gelirleri
gemil@@
ikil@@
ileriyle
imize
istatisti@@
istek@@
iyoruz
işareti
komş@@
kurumun
kısm@@
layıp
meşru
planlama
ray@@
riski
saatlik
sektörün
seviyesine
taraftar@@
uk@@
uygulamak
viz@@
yolunun
çıkardılar
ığı
ajansının
bağımsız@@
başkanının
benimse@@
bulunuldu
cılara
duruldu
düz@@
elç@@
emir@@
esad
etkileyen
fer
genişlet@@
gücüne
hal
işlenmiş
kazanç
kendine
konması
konusunu
listesi
lizbon
mevk@@
nobel
olabilecek
peki
rohan
tavr@@
yazık
yerlerinden
yeti
yükselen
zanlılarını
çıkmaza
ılan@@
ılığını
ışığında
şartların
3.@@
anlaşmayla
artırmaya
atma
bankasının
beth
birlikle
cilik
dam@@
dikkatli
dukları
duklarını
eder@@
ena
eser@@
günde@@
harc@@
hız
imz@@
independent
irse
i̇ddi@@
kayde@@
konferansında
kurmayı
küçül@@
lamaya
land
mektup
mladen
model@@
mus@@
müzakerelerinde
pic
radikal@@
rakip
res
sekreter@@
suçlamalar
sürdürülen
tamamı
tutan
vurgula@@
yaşanıyor
zamanla
zih@@
çoğunluğunun
çıkarları
ğının
0.
1244
ard@@
ayrılan
açılacak
basketbol
cinsel
dnevnik.bg
dönen
fiyatlar
görece@@
gösterildi
gözlem
harcamaları
harika
hükümetinden
hükümetten
ihtiyacımız
imzaladığı
i̇vanov
kararlar
lak
mirası
mücadeleyi
niyet
operatör@@
organizasyon
programını
santral
savundu
siyon@@
yorsunuz
yükseli@@
öngörüyor
ılıkla
ımın
şi@@
95
amadığı
belde@@
boy@@
büyümeyi
col@@
cılarının
dimitri@@
edeceğiz
eki@@
eylemleri
güveni
haftaki
hikaye@@
isimli
iyorum
katolik
kayna@@
kosteliç
liler
lüğünü
oynam@@
projelerin
redde@@
reh@@
suça
süz
takımının
tasla@@
tle
tığına
vizyon@@
zulüm@@
çete@@
aklama
anketler
avukat@@
ayan
birer
bölümünde
desteklenen
diyaloğu
duyduğunu
eksiksiz
eğer
görüyorlar
hil@@
imzalam@@
ittifak@@
işlerini
kapısı
karşıt@@
konus@@
kurbanların
kıyısındaki
lüğü
mik
olduk@@
onayı
opoulos
pek@@
protestolar
recek
reddediyor
sanatçı@@
savcısı
sonuçlandı
statüsünün
teklifi
turda
yeti@@
çabaların
öncesine
öz
ülkelerdeki
şan@@
1980
asa
açıklandı
bakanlığın
binası
cumhurbaşkanlığının
denetimi
değişim@@
diplomatlar
dps
dö@@
fiili
finansmanı
gerçekleştirildi
geçirdiği
girmek
gözlemci
hasta
imiyle
inanılan
i̇slami
i̇van@@
joviç
kapasitesini
kimi
korumaya
kuralları
merkezindeki
merkeziyet
meyle
mol@@
olas@@
parçalan@@
programda
sem@@
seçimlerinden
sunuz
tabi
tal
yaşa@@
yi@@
çıkmaz@@
ılmıştı
şekil@@
şiir
askerlerin
ata
aşam@@
bağlantısı
başbakanlık
başladılar
demir
değerli
diğim
duyuyor
düzenleyen
estonya
etrafında
euronews
getirilen
gitmek
haberde
holkeri
işadamı
jat
kapsamındaki
kasabası
kilo
kulübü
liğinden
liğiyle
mas
mücadeleye
müdürlüğü
oylamada
snsd
sporcu
tuğunu
uzun@@
verirken
yaptırım@@
yası
yolun
özgürlüğünü
şiddete
şirketlerinin
72
algılan@@
azaltılması
açtığını
başkanlığına
benzin
bildiri@@
bran@@
bsp
değişik@@
dikkat@@
entegrasyon@@
fonları
general@@
hoşgörü
inanıyoruz
jin@@
kalacağını
ksf
luğun
lığından
malze@@
mot@@
okula
oluşturmak
rasim
ruh@@
salt
sanatçılar
santralinin
schwarz
sda
seçimi
suçlarla
sının
telefon@@
temiz
teşekküllü
töreni
uygulanacak
64
78
aran@@
açmayı
boyu
dahi
dayanışma
dece@@
durumlarda
dönem@@
edecektir
gerile@@
görüle@@
gözardı
ilişkiler@@
ilmesinin
ivica
işlem
kategorisinde
konan
kullanmak
lıkta
makamların
mavi
meseleyi
mos@@
ner@@
oldu@@
papadopulos
slogan@@
sunmak
terziç
vatan@@
vermişti
çeke@@
çekme
çocuklara
çıkma
üs
ırk@@
2014
analiz@@
artmasına
arıyor
aşağ@@
basit
bağlamda
bağlayan
birliğine
bulg@@
devletinin
ekonomiler@@
fayd@@
gerçekleştirilecek
güçlük@@
haft@@
inanılıyor
intihar
iraklı
istler
kurulunun
masaya
muyor
mültecilerin
protesto@@
racan
resim
siyasete
sürü@@
sıcak@@
tedarik@@
tehlike
teor@@
traykovski
yatırımın
yenlerin
yolsuzluk@@
yun@@
öldürülmesi
ı-
ısın@@
şiddet@@
3,5
6.@@
akrab@@
anlara
ari
avrup@@
basının
başvuru
belirtil@@
bildirildiğine
bölgeden
değeri
değerlendirmek
değiller
dıra@@
ermenistan
etkinliğin
foniki
görüyoruz
güçlerin
hastalık@@
ija
imzalay@@
isiyle
istasyon@@
istifasını
kapsayacak
liderin
nu
olayda
pamuk
sahipler
sancak
seyir@@
soruml@@
srs
standart
uçur@@
yargıç@@
çabalarında
çıktığı
ð@@
öneriyi
ğına
ğını
ılığa
58
amay@@
artıracak
aylarında
başlamasını
bilirler
cumhurbaşkanları
devletler
düzelt@@
europe
focus
gas@@
gerginlik
geriye
görevleri
gösteric@@
güçler
havaalan@@
hayran@@
indiri@@
journal
kalkan@@
kanser@@
kapasitesi
kapı
kaydettiğini
kitabı
komşuluk
lıklarına
malarıyla
mali@@
nik@@
oper@@
patlama
potansiyeli
sakin
sitesinde
siyasetçiler
siyasileri
so
stand
sıralan@@
tanınması
tersine
tümü
tüz@@
tıpkı
uygu@@
uzanan
vit@@
yanlı@@
öngörülen
ısrar@@
şans
30@@
900
ant@@
araştırmaları
aydın@@
başarıyla
başlattığı
bo
bık@@
dadır
denk
dere
eden@@
ege
ekonomisini
elverişli
görüştüler
hedefinin
hedeflerini
hisse
ima
iyet@@
kaldırmak
kazanması
konferans@@
kâr@@
liklerin
lüks
mar
müyor
novak
olmadığına
parayı
predrag
salon@@
sağlayı@@
standart@@
sıfır
tahsis
tarihlerinde
toplumların
vic@@
yarattığı
yurtdışındaki
ılığının
ail@@
alanlarındaki
alık
ashton
boc
boğ@@
dağıtım@@
doğrulan@@
durumunun
döneme
ekonomi@@
ergenekon
evlat
financial
gazetecilik
gelip
ika
imaj@@
imkan@@
istan@@
kapasitesine
katılımının
kolay@@
kum@@
makamlar
merkezine
msk
olmaz
parlamentosunun
pon@@
ramazanoviç
savcıları
ses
seviyesi
simeon
sponsor@@
suikast
veli@@
yah@@
yahudi
yenil@@
yönetimin
zer@@
ölümcül
üyeliğe
350
68
abilir@@
altıncı
atması
atör@@
başlamasına
bdp
bekliyorlar
birim@@
davranış@@
ders@@
dünyaya
elerin
finansal
fonların
füle
gereke@@
görüşü
hit
ilan@@
imkansız
isyan@@
janoviç
katılımcıların
kaynaklarını
kesimindeki
konudaki
krediyi
krizle
lidir
line
ljubljana
mobil
modernize
müsteşarı
nic@@
onur
planlandığı
reformlarını
san
simiç
suçlarından
svetla
söyleye@@
tahmini
tarihini
temsilcilerinin
top
turistlerin
uluslu
uyarı
uzaklaştır@@
vlora
wisner
yatırımcılara
yazısında
çat@@
örgütler
öğrencisi
üyorlar
üğü
5.@@
8.
arnavutça
arş@@
ate
atık
ayrılmış
dolaylı
dığının
ebeveyn@@
girişimleri
haciç
iyet
işletme
james
kadın@@
kaynak@@
key@@
komsiç
konferansına
kullandığı
kullanmaya
ladılar
larımızın
ların@@
mac@@
mail
manzar@@
nat@@
opera
perakende
ps
ran
reformunun
rücker
spiriç
svetozar
sıkış@@
tanesi
tarihine
taslak
test
unicef
varlığı
yaşlı
yeme@@
yenilenebilir
yunanlılar
yük
çalışırken
ödemek
şeyden
1,2
alfred
alış@@
anlaşmaların
açacağını
açmak
bayrak@@
belirlenmesi
bulmaya
dostluk
düzeyindeki
etmekten
evlerine
exit
festival@@
firmaları
genellikle
gerektir@@
gönderme
gösteril@@
gündem@@
hollandalı
ihtiyatlı
ilişkilere
irade
izi
jana
kali@@
koalisyonun
kuruluşunun
mahkemede
mp@@
nes
oda
patlak
rakamlar
savcıların
sağlamayı
sekerinska
sonundan
sonuçların
tarz@@
tep@@
terek
tesini
tutarında
veriler
yapılan@@
yasasında
yurtdışına
zorun@@
çalışıyoruz
çıkmak
önceliği
özerk@@
öğretmen
üldü
akademis@@
analiz
bogdanoviç
brezilya
bölümünün
devamı
ekibinin
eş
farkla
firmanın
gelmesini
gerisinde
güvenini
ikisinin
imajını
inoviç
işlen@@
i̇kili
kalmayıp
karakter@@
kaybeden
larca
macı
maria
mpa
nd
nitelikte
normale
nüfusa
sorum@@
sunacak
sürdürmek
sürüyorlar
takımın
tepe@@
time
topladı
tuğu
yatırımların
zorluk@@
4.
61
aylar
başlamak
başlatmak
bilgisayar@@
biljana
bitir@@
burns
caktır
duydukları
final
grad
gül@@
güçlendirmek
hristofyas
hur@@
ilerlet@@
ilg@@
ino
iği
jelena
kalmak
kalmaya
karışık@@
kavram@@
kazanmak
koridor
kurulmuş
kök@@
lerse
lis
naz@@
nine
post
programında
rafiner@@
rock
sayısız
sağladığını
selimay
sürdürülmesi
süt
tartışmak
törenle
tıyor
unsur
varlık
voy@@
yaparken
yapılıyor
yaratıyor
yıldönümünü
zirvesine
çöküş@@
öldü
ülkeleriyle
1994
4,5
adaylar
adayları
almakla
alındığını
arayış@@
bayan
bildiriyor
bilen
bitola
cil@@
davet@@
dinle@@
düzenlenmesi
ekonomiye
erlis
esk@@
gidece@@
görüşlü
gösterilen
hin@@
iktidarda
inizi
istatistik
işver@@
jak@@
katılımın
kermabon
kesintileri
konumunu
konuya
kore
kovaceviç
koyduğu
kullanılması
mediklerini
mevkidaş@@
muamele@@
musunuz
müslümanlar
oyuncusu
rejim@@
safhas@@
size
tahsil@@
takdir
tesi
tif@@
yerlerde
yoğun@@
yumuş@@
çök@@
ımını
şair
şekl@@
alındığı
alıyordu
analisti
avr@@
ayrıntı@@
belgesel
bozul@@
bulaş@@
bulunma
bulunuyorlar
bö@@
doğumlu
etmesinden
ettiğ@@
euroya
gelişmekte
güzel@@
güçlerini
hata
hoş
hükümetleri
hükümetlerin
ismi
itibariyle
klasik
kurtuluş
lıdır
maaşları
mayın@@
odak@@
oları
olmalıdır
operasyonun
rejim
savunuyorlar
sağlığı
statüsüne
sürecindeki
yardıma
yetecek
yıldız
zirveye
ziyade
öneme
özet@@
şu@@
7.@@
aileleri
araştırmacı
artıra@@
bakanın
belgeler
beraat
coe
devraldı
edeceğine
engellemek
etkisini
federasyon@@
for
gereksin@@
görme
gününde
güçlükler
hapishan@@
hedefleyen
huzur@@
işç@@
kathimerini
keş@@
kontrolünü
kosumi
kül@@
lardır
ley@@
liyorlar
mo
muadili
olaylarının
park
performansı
pol
restor@@
satışı
steiner
tatmin
tüketici
udur
unsuru
uçuş@@
veri
yapmaları
yaşamını
yürütme
çekildi
çinli
ızda
şimdilerde
adımı
atını
bakım
balık@@
bağımsızlığına
boş
bulunul@@
bölgeleri
defalarca
dimitrov
doktorlar
ezici
fabri@@
gerektiren
geçmişi
geçtiğini
hedefle@@
hizmetler
io
ivanoviç
işsiz@@
kolayca
kullanım@@
kus@@
lerce
malları
oyuncular
robertson
rs
rupel
seçilmiş
sorunlardan
sorunlu
street
sübvansiyon@@
ters
teröre
tilmesi
tutumu
törene
usunu
vi
yans@@
yaratma
yolsuzluğu
yüzyıl
zaf@@
çeliş@@
ölçekli
ötesinde
özelleştirilmesi
ılmasından
şeker
4.@@
acı@@
aids
alama@@
almaları
ağını
bankaların
başlatmaya
buluyor
buçuk
cinsiyet
coğrafi
devle@@
ekle@@
engeller
etkilenen
eğitimli
firmaların
getirece@@
güc@@
ihlali
ilişkilerinde
inandığını
kanunu
katına
kongresi
kun@@
kurula@@
lecek
lerdi
liderlerle
meclisteki
medyada
milyondan
mişlerdi
mühendis@@
müzakerec@@
nitelendirdiği
savaştan
sağlayarak
soruşturmanın
sınıf
taşıyacak
teknolojik
teşkilatının
ucu@@
ulaşım
ves@@
vetevendosje
vin@@
vurgulayan
yapıldığı
yazdı
yaşadı
yenerek
çetin
ğimizi
130
ale
aziz
batısındaki
belediyeler
birbiri@@
cağına
diyalog@@
dolar@@
don
edebil@@
edebilir
erteleme
fabrika
gerçeğ@@
güvenilir@@
halkını
hızlandırmaya
ilerinde
ilerlemesi
ilişkilerinin
karıştır@@
kazanma
keti
koruması
koruyor
lenecek
loviç
ly
lıklara
meydan
muh@@
münferit
not
olog
oranına
oranını
platform@@
projelerine
rasmussen
reaktör@@
reddeden
seyirci
sezer
sis@@
siyasetçi
sıkıntı@@
tablo
tiyor
tiğinde
zamanının
çekim@@
ahmeti
akaryakıt
balıkçılık
bariz
bedel@@
belirlemek
bet
bulunmuyor
cemaat@@
christian
cina@@
demokrasinin
deney@@
dis
düşünül@@
dık@@
eserleri
eyaleti
fal@@
gelmesine
gesi
grev
havaliman@@
hızlandırmak
iklim
jur@@
kararlaştır@@
katledil@@
katılımıyla
kaybettiği
kend@@
köprü@@
masıdır
muhalif
müfre@@
mühimmat
num@@
olgun@@
oyunlar
parlamenterler
partili
planında
politikalar
pop
sahiptir
sanız
set@@
söylemek
taahhü@@
telecom
tren
tutuklanan
uygulanmasında
vermesini
vide@@
yeraltı
zarara
çalışanların
çıkarak
önlem@@
69
afet@@
aktör
ambar@@
anlamı
anlaşmazlıklar
artırmayı
askerlik
attığı
açığının
bazı@@
bölünme
cesaret@@
dayız
diyaloğun
djukanoviç
düşünüyoruz
eksik
emir
endişelen@@
etkin@@
fa
fasıl@@
frank
gök@@
görüşme@@
hazırlanması
hükümetiyle
iflas
işadam@@
i̇şlet@@
japon
kadar@@
kazanarak
klar
lov@@
mahalle@@
medikleri
memekle
meni
normal@@
olasılığının
oyn@@
rahatsız
sayfalık
sezon@@
seçenek@@
sürdürül@@
tanr@@
tip@@
turistik
vatandaşın
vekili
yarışı
çekilmesi
çoğun@@
özerk
özür
ışını
şüphelenilen
2.
aca
akın
babası
başarısı
beklendiğini
bilimler
boskovski
denetle@@
dos
endişe@@
etmemesi
gaşi
geçirilen
gönül@@
görevlileri
herkese
hesap
i̇mparatorluğu
kapılarını
kaynaklarının
mediafax
mesajı
mircea
model
mw
nica
olun@@
olurdu
operasyonları
partiden
partiye
pazarlama
prag
q@@
ret
romanlar
siyon
tazele@@
temsilcileriyle
tetik@@
ticaretin
tito
yıp
ziyaretini
ziyaretçi
çöker@@
önerge@@
ıl
şe
110
59
aralarındaki
bayrağı
bağlayıcı
başvurusunu
bih
bulunmuştu
bunda
cenevre
ceo
ck@@
darbe@@
destekç@@
faaliyetlerinin
fonlarının
günün
haberinde
hakaret
hastane
hazırlanmış
herşeyi
ihtilafının
imizin
istif@@
kaynaklardan
komutan
kredis@@
kullanılıyor
kuruluşun
litvanya
lığında
mamak
mamakla
medeki
medyaya
ment@@
mesle@@
okuy@@
ot
rompres
savunan
sene
sovyet
tarafında
tepkiler
uyum@@
çağırıyor
çıkış
ölü
öğ@@
ümit
ğu
5.
83
altın@@
amıyor
anlatıyor
avukatı
büyüklükteki
cilerin
danış@@
day@@
em
emil
gelmek
geçmesine
görüşmelerinin
gösterileri
gösterisi
götü@@
ilerlemesini
isimler
iyor@@
i̇cra
i̇dari
karşılaştır@@
komisyonunun
kuzeyinde
kınadı
likte
masraf@@
memur
mültec@@
oliver
reisi
rekor@@
riyor
sas
sonuçlanan
standartlarının
stefan@@
sunum@@
sürdürdüğü
sıraya
taz@@
taşı
tekstil
temyiz
tey@@
troy@@
yaklaşmakta
yapmakla
yarışması
yedek
yetenek@@
ziyaretinin
çabayı
çıktığını
öldürüldüğü
atan
atlar
atmaya
bahar@@
bahset@@
buldular
büyükelçili@@
condoleezza
davasında
daş@@
deyimiyle
değ@@
diğinin
duyul@@
döndür@@
dönüşü
düşürdü
ekonomisine
eylemi
farkın@@
festivalinin
geleceğine
gösterecek
gücün
hat
ifadesinin
ilerliyor
istiyorsa
itenin
işley@@
i̇daresi
i̇zleme
jos@@
jov@@
kanıtı
kariy@@
kitle@@
kopenhag
korkul@@
liliğini
makul
manastır@@
merkezleri
mevdu@@
protestolar@@
sağlandı
seçilmesi
suçlardan
söylerken
tamamlamak
topraklarının
tutulan
uyguladığı
vurguladılar
wi@@
yansıtıyor
yarattı
yurt@@
yönetimini
çağrı@@
çözümler
övgü
üçü
şen@@
şiddetin
140
andy
arasından
ateşli
ayrıldı
bağlayacak
başlayacağını
bebek
beklemek
bizler
bomba
boykot@@
büyümesi
cisi
demek
desteğine
değerlendirdi
değişiyor
değiştirmek
diaspor@@
durumdalar
edilmişti
gölge
görüldüğü
i-
idam
iddialı
kapatma
kapsıyor
katliamı
katılanlar
kazandılar
kitab@@
kup@@
lerimizin
listede
makedonlar
marat@@
muhalefeti
nokta
notu
olmuştur
projesini
savunu@@
serbestleştir@@
simge@@
sindir@@
sonuca
sürdürmesi
tahliye
telekomünikasyon
topluluğu
ulu
ulustan
vat@@
vatandaşlık
yapılmasına
yarışma
yasalarını
yayınladıkları
yaşandığı
yükse@@
zamana
zamanlı
zincir@@
ça@@
çalışanlarının
çocuğun
çoğunluğunu
çıkarına
1,6
ağına
bayramı
bağlantıları
başarısızlıkla
bizzat
cemaati
cokoviç
dernek
desteklediği
dy
etkileyici
geçiş@@
gördüğ@@
göçmen@@
gın@@
hedefler
imtiyaz@@
imzala@@
istikrarsız@@
ks@@
lak@@
mden
miyorlar
olayla
onlarca
partiyi
piy@@
planlan@@
prodi
reklam
sanay@@
sayede
semt@@
seçmen@@
söylemişti
sın
sınav@@
temin@@
tesisi
tör@@
tüzüğü
uygulamasının
uzmanların
yapılarına
yapısı
yatırımcıları
yönetmeni
yürütüyor
zan
çalın@@
çoğunu
ümüz
abilecekleri
adayların
adaylığı
alıcı
aren@@
atıyor
ayrımc@@
bamir
başlamış
bey@@
bilecekler
bölünmüş@@
devre@@
dink
döneminden
ellerinde
faaliyetlerin
filmleri
gereksiz
görüntü@@
hakimler
icra
ilerletmek
inşasına
istiyor@@
i̇ç@@
kamuoyunda
kapasiteye
kapsa@@
kariyer@@
kentte
köy
kısım@@
lazarova
madencilik
mann
miha@@
nedenlerden
oluşturduğunu
partisine
politikalarını
referandumu
rejimini
standartlar
strazburg
sınırsız
tahvil@@
temsilcilerin
tıklarını
yandaş@@
yardımın
yemek@@
yerleri
çilere
çiğne@@
üyeliğin
şeyleri
askerî
atına
başvuruda
bilgiye
binasının
brajshori
bta
bulunmasına
cezalar
ciyi
daianu
dayken
duran
egemen@@
eroğlu
ettiklerini
firmalar
gelişmeleri
gisine
görüşünü
holding
ihtiyaçları
i̇stihbarat
kalp
kamer@@
kendi@@
kimyasal
klerin
komplek@@
komut@@
kullanım
lisans@@
melerden
milletvekilinin
milyonluk
mutlu
nel
nes@@
noktasına
ortalam@@
ortamda
partilere
puanı
resi
romanların
sds
serbest@@
sis
sistemleri
sürdürece@@
tiğine
trafi@@
usunda
veritaban@@
yakıt
yararına
yirmi
yılmaz
zaferi
çev
ılacağı
ılmasında
ameli@@
arz
açıkladılar
balık
bekliyorum
binanın
davalar
diğeri
durumla
dörtte
düzenleniyor
ecekler
enko
faaliyetler
fabrik@@
felaket
gayrı@@
gerekirse
gerekiyordu
gitmesi
görmüş
gösteriler
hersekli
hiçbiri
izleyic@@
i̇srailli
jer@@
kaliteli
kapasite
karşılama
katılmasını
kaybedil@@
kaçınılmaz
kendileri
layacağını
lendiriyor
liste
mahkemeler
makamlarını
mizde
partisinden
pres@@
programlar
radovanoviç
referandumda
sarayı
servis
sonuçlarına
st.
statü@@
suçlamada
sınırın
tiriyor
world
yangın
yarışmasında
yasama
yüzyıldan
ılmasıyla
şok
76
akla@@
alkol
azınlıklar
açılmasını
bakıldığında
baskın@@
birleşmiş
bulunma@@
clock
decek
diyarbakır
edilmesinin
eib
ela
endişeler
erdir@@
etken@@
eve
faktör@@
federasyon
fiyatlarının
fotoğraflar
gayrı
geçmek
görünüm
güreş@@
haberleri
hazırladı
hedeflere
istikrarını
işgal
kabinenin
kabinesi
kadınlara
kamyon@@
karşılaştığı
katılarak
konumda
kred@@
liklere
lılık
meselenin
metreküp
milit@@
muştur
mülk
mülteciler
ortakları
otomobil@@
pazarının
politik
raf@@
rakamlara
rejimin
saatler
saldırının
sam@@
sanmıyorum
sembol@@
ser
seselj
sps
sular
ufak
umuduyla
varsa
verim@@
wall
yansı@@
yetin
zanlılar
zo@@
çak@@
çiçek
çocuğu
öf@@
ölümüne
öğrencileri
ümü
üyeler
üyeleriyle
şiş@@
82
anları
anoviç
bankas@@
birliğini
brcko
coburg
dolaşım
dr.
duruşma
eleme
engelleri
entegrasyonuna
etmeyeceğini
faaliyetlerine
fazlasının
fiat
gelin@@
geçe@@
güdümlü
hu
iadesi
ihracatı
ilgil@@
insanı
istikrarsızlık
ivanov
jüri
kadının
kamuoyunun
karşı@@
kaygı@@
kaynaklara
laboratuvar@@
lavrov
lendirme
leşmesi
lise
lukla
mahkemelerin
makamlarına
meclisinin
plastik
potansiyeline
saxe
statüsüyle
sürülüyor
sınız
tüketim
yakalanması
yasağı
yetiştir@@
yiyecek
yunanlı
öneriler
ısından
ışığına
şüphelen@@
1974
74
ailenin
airlines
bekiri
bilecekleri
bilinc@@
bulundukları
bulunuyordu
ciye
dağ
deneyim
devreye
değerlendiril@@
duğunda
döv@@
dükkan@@
dürüst
erişimi
evde
eylemler
fonun
fried
gerçeği
gözlem@@
hakk@@
hırvatların
inşaatı
komünizm
konunun
kru@@
lenmesine
meydanı
misyonuna
nevi
nüfuz
orijinal
oybirliğiyle
parlak
parlamentos@@
petro@@
rekabetçi
savunmasız
sağlayama@@
sembolik
sendikalar
sorunuyla
sürtüş@@
tati@@
televizyonuna
tina
tuttu
ulaşması
uygulamasına
varlığının
yapmakta
yaptır@@
yü
ziyaretçiler
zorlan@@
î
ülkesini
ıştı
2015
2020
84
anlay@@
anna
artışa
atam@@
atılması
açması
bağıml@@
beklediği
biliyoruz
birbirinden
bütçesini
bütçesinin
caklar
coviç
danışman@@
destekleyecek
devralacak
değiştirmeye
dönüşüm
eleştiren
enlere
eriyor
etkilerini
etkinlikler
fatos
festivaline
fikirde
filistin
gisinin
gordana
gölü
gönderilen
görüşmenin
iddialarını
izlemek
kaletoviç
kararlarını
kaçakçılıkla
kişiden
koha
komünizmin
larak
menfaat@@
meselelerin
odak
ortamını
posta
programa
sayf@@
sağladılar
simitis
soktu
struga
sutanovac
sırpça
talebini
tasarı
ticar@@
tük@@
tığında
usuna
uzan@@
vermesine
yapacakları
yayla
yetkilinin
yokla@@
yüzyılın
çıkmaya
önerisinde
ülecek
ılmaz
şirketlere
73
81
abilirler
aileler
ala@@
ardi
ayrılması
başbakanları
bekleye@@
beyan
bölgesinden
cezaevi
cezaları
devir@@
dina@@
duruyor
düklerini
dünyas@@
edileceğini
entegre
etmiyor
eğitime
faal
gabriel
habere
icg
iktidar@@
inceleme
istediklerini
kaydeden
kayg@@
kesin@@
kimliği
kişileri
klin@@
komutası
konuların
konut@@
krediler
kullanımını
kurduğu
kuvvet
köyü
kültürü
liderlerini
mantıklı
meslektaşı
muş@@
mışlardı
nikolay
nitelendirerek
opulos
oynayan
petroviç
popoviç
sanayi@@
sanıkların
seviyeye
seçmek
sonrasındaki
sta
standard
steel
tanınıyor
telegraph
toplamda
unuz
vol@@
yapıyorlar
yaygın@@
yaşamı
yenileme
yönetmen@@
çözmeye
öldürüldü
öldürülen
özelliğini
üss@@
1,3
adlandır@@
adnan
anne@@
açıklamalarda
başkanlığında
bedrana
birey@@
dans@@
devriye
doğr@@
filmler
gözaltında
hatırla@@
hemfikir
içeriyor
işine
kanın
kapasitesinin
kariç
koşulların
kulüp@@
kışkırt@@
liberal@@
lüler
mark@@
milliyetç@@
milos
miting@@
mle
modernizasyonu
olmalarına
olmanın
petrov
pulaj
raporunun
ria
sayım
stefanoviç
stratejisini
suçluların
taleplerini
tari@@
türkleri
ura
uyandır@@
uygun@@
vermekle
yapmasına
yapıları
yasalarına
zen@@
ölümü
önlenmesi
üste
üyordu
ğında
ımızda
180
adılar
akademik
aradaki
atının
bay
bilet
bugün@@
bulunurken
cü@@
dahil@@
daysa
dost
edebileceğini
genişletil@@
gösterme
gündemde
güvenliğin
hissesi
ihtiyaçlarını
ilerleyen
i̇zmir
kalmasını
kapatılması
karşılıyor
konuk@@
layacağı
meclis@@
mel@@
miktarı
muhafazakâr
novosti
olasılık@@
ondan
pace
paketini
pekiştir@@
perspektif@@
powell
referandumun
sanık@@
sava
seminer@@
sonuçlarının
soykırım@@
stoy@@
söylenti@@
takv@@
tanımlan@@
tasarruf@@
tasarıyı
temizleme
ula
uğradı
yaşama
yetkililerine
yoktu
çalışanı
çalışmaların
çıkmasına
öğrencilere
şüphel@@
..
3.
adaletten
ajansına
amak
araştırmaya
başvurusunda
blair
boşnak@@
direktör
etmesinin
eğilimi
fakül@@
forum
geldiğinde
gerçekleştiril@@
görünüm@@
hava@@
hükümette
ilerlemesine
istekl@@
isyan
işadamları
işbirliğinde
işbirliğinden
kabashi
kaynaklı
keskin
kişilere
komün@@
koyuyor
kurt@@
lıyorlar
mark
medvedev
mekanizması
mü
nakit
olacaklar
olu
operasyonlar
orhan
osman@@
otobüs@@
parça
rahibe
ramuş
safhasında
savcılığı
sergiledi
sermaye@@
silahlar
suçlamaların
söylemekle
tasarısı
teye
türklerin
umudunu
uğradığı
verdik
yakalay@@
yöndeki
çoğunlukta
ömür
önerdiği
önlemleri
şahıs
25@@
adaletin
albert
arttığını
barın@@
bayram@@
belirsizlik
bilirsiniz
caf@@
cileri
dendi
değerindeki
dinin
endek@@
eyalete
fatih
fırsatlar
gerçekleşiyor
girme
gruba
havacılık
havayolları
hemşire@@
hızlandırılması
istemiyor
isti
kalite@@
kararlılık
kaçakçılığıyla
kesh
keşf@@
kongre
konu@@
kullanımına
kutsal
lam
mamasını
maçı
muammer
olmamakla
ori@@
peş@@
protest@@
psik@@
referanduma
reklam@@
ron@@
sandık@@
sasa
seçme
sidir
siyaseti
soldan
sundular
sözler
sürdürdüğünü
tica
tüsü
yakınında
yarar
yas
yazdığı
zorundayız
çabalara
çekmeye
öngörül@@
örgüte
ızın
6.
alanlardaki
artarak
baskısı
biden
birbirlerine
budapeşte
caviç
corceviç
dairenin
devret@@
diğerlerinin
ebilecek
egemenlik
ettiğine
fest
geleneklerini
gelmiştir
grubuna
gönderildi
görünen
göstericiler
göstermektedir
güvence@@
hazırlık@@
hissedar@@
ilebilir
ilki
i̇lişk@@
kampanyanın
karayol@@
korgeneral
madrid
mallarının
metal
miller
miroljub
nan@@
nefret
noktaya
olaydan
parlamentodaki
sam
sektörde
sergilediği
seviyesini
seyre@@
sivillere
ste
talimatı
tamamını
tedbirlerini
tül@@
tırma
verip
yayınlandı
yazıl@@
yendi
yetkileri
ziyaretin
şat@@
77
aak
adının
arsa
artışın
atılacak
aylarca
ayının
aç
belirledi
borçlarını
bulunacağını
bulunmaya
bölgeler
büy@@
bırakıl@@
cesur
dakik@@
denli
dünyasının
ef
ellerinden
eser
eşsiz
ff
firmasının
foniqi
foruma
geleceğinin
generali
hayatı
hoca
ilgisini
iyeti
kabaşi
kadarki
kentsel
komiser
konsorsiyum
kurbanı
merkezin
meşru@@
miyoruz
nakledil@@
okullar
olağan
pasaport
pira@@
poor
priştineli
radmanoviç
razvan
rtk
sayıla@@
sağlamanın
sağlayacaktır
serbestleştirme
servisi
suzluk
sözünü
sürerken
tarafta
tarak
tatbikat
termik
türban
türklerinin
usta
verildiği
vermedi
yapılacağını
çalışmalara
çatışmaların
çeyreğinde
ıc@@
şartlı
+
160
anısına
atıldı
aylardır
ayrılıkçı
ayrım@@
açıkladığı
belirleyici
biyolojik
bombal@@
cos@@
cumhuriyetin
dönüm
düşünülen
dışına
edecekler
fan@@
feith
getireceğini
getirmeyi
geçirildi
geçtiği
gun
hafifle@@
havalimanı
hayvan
hazar
iddianame
ihaleyi
ilgilendiren
iliğin
ilkelerine
kaldırmaya
kalitesini
kararından
kaygılarını
konferansın
konularını
konumu
kuruluşlar
larımıza
ljiljana
melerde
mlacan
modernizasyon@@
monitor
nicolas
partisini
pilot
piyasası
plaj@@
politikasına
reddederek
see
sendikası
sevk
sporcular
suya
sınırında
sıral@@
talepleri
tamamlama
tavsiyede
tavır@@
tutma
tüken@@
tılı
ulaştır@@
umuyorum
yetersiz@@
yetkilileriyle
yorgos
yöneltilen
yönetimine
yönettiği
yükümlü
yürüyüş@@
zannier
ziy@@
çalışanlar
çıkarmaya
çıkmaz
öncelikler
şansının
1.
7.
98
abiliriz
araçları
arkadaşı
bas
başkanlığının
bildirilen
bitiki
biyometrik
bugünkü
cus@@
davasının
derviş
değişimi
değiştirilmesi
döneminin
düşüne@@
etkileyecek
gelirken
gittiğini
gribi
gözler
günümüz
hakimlerin
harcanacak
hareketinin
helikopter@@
hük@@
ileride
isa
i̇skender
jacques
kalanı
kararla
karolos
katar
kati@@
kg
kokain
konuşlandır@@
kur
kuyru@@
köşe
martin
nakli
nicholas
olamaz
oylamanın
oylamaya
patlayıcı
piyasaya
prosedürleri
protestocular
resi@@
saldırıya
satışa
sof@@
sorguya
subay
subayı
sunması
sürülen
sınav
tecrübe@@
tesisleri
teşhis
toplumuna
tren@@
turne@@
uzmanlara
vasil@@
verileceğini
vermeleri
yapılandırma
yapıldığını
zirvenin
çıkaran
ımına
şartlarından
şiddeti
afet
akşam
altı@@
anlaşmalarının
arda
arttığı
askerin
ayrılık@@
bac@@
basını
belirleyecek
beraberinde
bileceklerini
bosn@@
bütçenin
doların
doğum@@
durdurmak
duyurdular
ekonomistler
etkiliyor
gelmesinden
geçirmesi
gide@@
gözle
güce
güneydeki
günümüzde
haftada
hane
holbrooke
ilişkisi
işletmelerin
kulak
kuru
kısıtlamalar
lamış
lehinde
liderlere
maktı
nesil@@
olanakları
olaylarına
oluşturdu
pir@@
raz@@
rompuy
röportaj@@
saldırıların
sandalyeli
senaryo
silahların
stratejisinin
sürdüler
sürdüren
süs@@
tanıma
tarafa
tassos
yalanladı
yetkilerini
yıkıcı
yılını
zemun
zorlaştır@@
çalışacağını
çalıştır@@
çocuklarının
ö
öfke@@
özgürlüğ@@
ıysa
şampiyonasında
şartlarının
şeye
-ki
20.
a1
alınıyor
amaca
ano
artırması
ayak
baba
bakanlıkları
bedeli
beğen@@
birisinin
borcunu
buz@@
cumhurbaşkanını
dairesinden
dağlık
dediler
dergisi
deydi
değerleri
diplomas@@
düşmesi
ecb
etrafındaki
ford
fırsatları
gruplarının
haksız
imkanı
insight
istismar
kabines@@
kalmadı
kalın@@
kampschror
katkılarıyla
katılımına
kente
koyma
kurallar
kürt@@
kıdemli
lenme
malar@@
masındaki
maç
meselesinin
mitev
moody
nedenleri
nis@@
olmamasına
organı
oyunların
pahor
parkı
polisine
rit@@
saha
sanal
sorunlarının
soğ@@
sunmaya
suçlandı
söylentiler
sınırlarını
tecavüz
tedarik
tersan@@
tesisin
uygulamaları
vaatlerini
yapacağız
yönetiminde
zulüm
çıkmış
çıkış@@
ötesine
ılımlı
8.@@
ailesine
alıların
anlaştı
art
atmak
azaltı@@
açıktır
ağ
bankaları
bertaraf
bulgarlar
bulunmuş
bünyesindeki
civar@@
değiştirme
dokun@@
düzenlemeler
eg@@
eleştirilerine
ette
fet@@
geleceğiyle
generalin
gidi@@
gidip
girmeye
gösterilmesi
haklarında
harcamalarını
hazine
izm
işlerin
işletmeler
kalacağı
kaldırdı
kanıtlar
kararında
karşıladılar
kentinin
konseyin
konseyinin
konsorsiyum@@
kraliyet
kredinin
lıların
melerle
milenkoviç
müslüman@@
müttefik
noktaları
oc@@
ohrid
olmayacağı
papuliyas
rak
ruhsat
samimi
sandalyelik
sendika
srbija
sürdüreceğini
tasarının
teşvi@@
vade@@
vesna
vurularak
yakalamak
yasaklan@@
yatan
yecektir
yenilikçi
yetkililerden
yoğunlaştır@@
yüzyılda
zal@@
ödülüne
örgütlerinin
ısıyla
1,4
7,5
88
adaylık
ahlaki
alacak@@
aldık
amadığını
atmosfer@@
açıklıyor
baj@@
basit@@
başındaki
beldesi
bildirge@@
bira
daireleri
dinamik
emrini
endişeyi
esnek
gecikme
gergin
girdiği
girişiminin
gol
görüşleri
hastane@@
herşey
hesab@@
ilanından
istenen
ister@@
içinde@@
işlevsel
kemer
kitabın
klerinin
korkunç
kuran
kurti
kutluyor
kürtlerin
libyalı
lukoviç
matthew
medikçe
medyası
meyecektir
meyeceğiz
necdet
olaya
olympic
operasyonda
paketinin
pekusiç
psikolojik
raportörü
reformlarda
saatlerinde
saray
sonr@@
standard@@
sözlerinin
sürecinden
talimat@@
tarihin
tarzı
taşıma
taşıy@@
temizlik
teresa
toplayan
trafiği
ulmuş
uyarısında
uyorum
uçuş
veda
yalnız
yanda
yapmıştı
yaratacak
yitir@@
çevi@@
önerileri
ürünler
üstünlüğünü
1.500
alışverişi
artırarak
azaldı
açlık
açmaya
açılışı
baskıs@@
bölüm
cam
cevap
ciddi@@
darko
dili
dille
drazen
dökül@@
düzenlemeyi
düşürül@@
ebileceği
eleştirenler
engellen@@
enklav@@
etkileye@@
evlerini
franco
fuhuş
füz@@
gazı
genişlemesi
getirilecek
geçme
geçmişteki
girmiş
grubunda
heyetine
house
ilerlemeler
inanc@@
konsey@@
konsorsiyumu
konuma
koşul
kü
limanı
maaşlar
maaşlarını
moda
niteliği
novinite
onaylandı
orkestrası
petkoviç
proeski
sakinleri
salonu
samarciç
serbestçe
sonuçta
suçluyor
sürdüre@@
sürül@@
sıklıkla
sınırının
taraftarlar
teröriz@@
thaci
toplantısının
tura
tıktan
ulaşma
uyarıyor
uyruklu
uzlaşmanın
uzu
vurguluyor
yakalama
yetini
yükseltti
yüzme
zastava
çapındaki
çevresel
çıların
ılığından
10,@@
abileceğine
alina
almadan
almanın
ardında
arın
bakıyor
başlandı
başlattılar
belediyenin
bildi
ciddiye
engellerin
engelleyen
engelli
enver
erin
erte@@
evine
fabrikanın
georgievski
görevler
gösterilecek
hedefe
işçiler
i̇ttifak@@
kada
kalite
kanser
kasaba
kasıtlı
kaydederek
kaynaklandığını
kaç
kendisiyle
konusuna
letonya
lip@@
mahrum
mari@@
merak
modeli
nü
oluşturmaya
onaylaması
ortalarında
pan
planlar
polisle
popüler@@
radmila
rt@@
rumları
sahil
sanatçının
sesi
sessiz
sevilen
sevin@@
seçime
sisteme
sonucun
sorunlarına
soruşturmayı
sosyalistler
suudi
suyu
süresini
sınırlar
tanıy@@
tarafları
taze
tekel@@
toplumla
trajkov
tutuklamalar
türünün
umuyoruz
uygulamasını
uyor@@
vergileri
yapmasını
yerleşim
yetersizliği
yovanoviç
zorluklar
çiftçiler
özgürlüğüne
üncü
şimdiyse
abileceklerini
acağımız
acılar
alabil@@
alakbar
amayacağı
anlayış@@
anlaşmazlığına
arnavutlara
azınlıklara
bakanların
bakımından
barındır@@
belirlendi
belirtilen
buradan
bütçesinden
bütünlüğü
cezasını
dalgası
dağıl@@
demokrasiye
değiliz
ditore
dtp
durumuna
dükleri
dığım
engelleme
evinin
gana
görevl@@
görevlilerinin
görüşmelerden
gündem
gününden
haftalar
helsinki
hiseni
ij@@
iliğe
ilk@@
insanlığa
isimleri
i̇nşaat
jev@@
karak@@
karardan
kaybı
kenara
kolu
kurallarına
kürtçe
kınayan
kırıklığı
lamıştı
leyic@@
liklerinin
list
lıyoruz
mafya
mayacağına
mesleki
mindeki
miras
modernizasyon
muhafazakar
okullarda
olanların
olaylara
ortaçağ
oynuyor
planlıyorlar
pozitif
rahat
reddetmesi
reformlarının
rolünün
sanığın
savcı@@
seecp
seçeneği
simgesi
stamboliç
sınırına
sıralam@@
toplamak
uc@@
ulacağını
unsurlar
uygulanmasının
victor
vurdu
yaratan
zararlı
çalışmasını
çin@@
çoğ@@
üstünde
şüphelilerin
71
ade
alınmasına
amayan
antonela
atom
ayrıcal@@
bağımsızlığa
başkentin
bildiril@@
bileş@@
bulan
bulunmasını
bulunmayan
bölgelerdeki
bütçesine
cami
ddy
destekçileri
diniz
direktör@@
duktan
düşünülüyor
düşüşe
dışarı
eleştiri
eseri
etmediğini
fabrikasının
galip
gerginlikler
gerginliği
girişimini
görevinin
halini
harcama
hazırlıkları
isteği
itibarını
i̇ç
kampanyasının
kaydı
kitle
köyünde
laşması
lehine
lit@@
lojistik
mamasına
meme
meyeceğine
motor@@
mücadeledeki
müslümanların
nenad
ofis@@
olduğumuzu
pakistan
pazarında
petrescu
rejimine
saygı@@
seçmenleri
sistemlerinin
sokul@@
sorumluluk@@
soruşturması
svilanoviç
sürücü@@
sınırlarının
taciz
taj@@
tamamlayan
temsilcilerle
tesinden
tire@@
tutar@@
tutumlarını
umarım
verileri
wolfgang
yasalarının
yunan@@
zanlıyı
çalışmada
önlemlerin
örgütlerin
özgürlüğünün
şüphesiz
1984
arjantin
arkadaşları
avantaj
açıklanmayan
bakanının
bilgilerin
biliyorum
cumhuriyetinin
davalarını
davalarının
değerlendiriyor
değilim
dosy@@
düzenlemek
düşüre@@
ec
eder
egemenliğini
ekonomileri
ermen@@
eta
etmeli
ettik
eu
filistinli
garanti@@
gates
geleneğ@@
gerekçe@@
geçirmeye
girişimde
girişimler
grafik
güncel@@
hareketle
ilir
iliğini
işbir@@
i̇şler
jovan
kanlı
kaynakların
korku
kral
kralı
kule@@
kural
kürtler
kızıl
ladin
leakey
liderinin
maksızın
mem
meyiz
mezse
mezun
müzakerecisi
nehir
olaylarını
ortalamasının
ortasına
pnl
saldırısı
satı@@
savunarak
saydı
sağlayacağı
sorularını
sorunsuz
soruya
spa@@
sürdürüle@@
tanıtım
tesinde
toplantılar
trakya
ulaşan
umudu
unhcr
verildiğini
yaptırımlar
ydu
yükümlülükleri
yürütülecek
zammı
önerisinin
ürünlerinin
ıların
ıyorlardı
şaibeli
şeylerin
96
alım@@
anlayış
atatürk
azalması
açmış
bağlılığını
bilir@@
biliyorlar
birimleri
cektir
ceğine
che
cinayeti
culara
dakikada
dolaşımı
duyan
dönüşüm@@
edebilecek
endişeli
erhard
esas
etiyle
farkına
geleceğin
gelmediğini
gençleri
giderken
girişime
google
görüşler
görüşmeye
heyetin
hor@@
ibaret
imizde
içinden
içinse
i̇dare
i̇zlanda
karargah@@
kararların
kartı
karşılaşmasında
kavg@@
kaçmasına
kağıt
kesimlerinde
kolaylaştırmak
kutup@@
lendirdi
liderleriyle
listenin
maddesi
mallar
milis
miliç
mirasları
muhtemel
müdahalesi
niteledi
olmaksızın
olur@@
orgeneral
passy
paylaşıyor
po
popovski
rocen
sabahı
saldırıda
sanıklar
satan
sağlıklı
seniz
serge
sorgula@@
stratejis@@
temsilcilik
temsilcinin
tirip
toplumdan
toplumları
tım
ulus
vardılar
varlıklarını
vermenin
yaptık@@
yaptırım
yargının
yarışacak
yarışmada
yaşamak
yorlardı
çap@@
çıları
ödüllü
önerisine
özgürlükler
ülkesindeki
ımda
şaşırtıcı
9.@@
amayacak
arananlar
attılar
açmıştı
açıklamalar
barack
barışın
başbuğ
başlangıc@@
başlarına
belediyelerin
bombalama
boğaz@@
büyümeye
cumhurbaşkanlığına
dek@@
denktaş
dernekleri
devletten
değişti
diyorlar
dördün@@
düzenliyor
ediyordu
eleştiri@@
engellemeye
etse
evinde
firmalarının
free
gazetecinin
geliştirmeye
genelindeki
gerçekleştirmek
getiriliyor
getirmede
geçer@@
giriyor
gittikçe
gjorge
görmeye
göçmenlerin
güvenliğe
halkla
hane@@
hatları
hedeflenen
hentbol
hizmetlerini
hus@@
hükümetlerinin
ifadesine
izin@@
jen
kaldırılmasını
kesinti
koltu@@
kulis
lanacak
lehne
leştirme
liklerine
luyorlar
luğa
mamaya
muhteşem
nedenlerinden
noktal@@
ordusuna
politikalarının
rahi@@
restoran
rts
safhada
savcılığın
seller
seyret@@
sorgulan@@
sömür@@
sınırdışı
tamamlandı
tartışmaların
tasarım@@
tasarısını
taviz
tehditler
tehditleri
teknolojisi
tutmaya
uyardılar
verilerine
yazan
yenilik@@
yeteri
yken
zlatko
çektiği
ödemeye
üstlendi
170
92
99
adayın
air
alg@@
alternati@@
ardındaki
askerlerini
avaz
ayırdı
azınlığın
başlangıcı
belirtmekle
bizans
boşalt@@
boşnaklar
bulması
bırakıp
davayla
deniyor
diktatör@@
donald
duyuruldu
edilip
etleri
fouere
geçmişe
h5n1
iflas@@
ihtiyaç@@
ilanı
ilanının
ilgilendiğini
iliç
imde
iğ@@
i̇şleri
kalitesi
kalmasına
karakol@@
kardeşi
katılacağı
kayıtdışı
kazandığını
kazanıyor
kele@@
komite@@
komşusu
konserler
koz@@
koşullarının
krizinin
kıt@@
lenmesini
lescu
leyici
mamaları
mamalı
memurunun
muhabir@@
nezaretinde
nüfuzlu
ofis
olacağız
onlarla
online
oto
oyunun
sars@@
savaşta
seçimlerle
sonuçlandır@@
spe@@
sun
suçundan
sıkıntısı
tecrit
tiklerini
tutuklanmasının
tutuklu
vakit
vize@@
yapılacağı
yarısından
yedinci
yumuşak
yönetil@@
zel@@
çoklu
çözümüne
şansına
şartıyla
şirketine
97
adaylığını
adımdır
alarındaki
american
anlaşmazlığını
ant
atandı
aydı
bakım@@
başlayıp
belgelerin
bildt
birinc@@
blog
bölgelere
catherine
charles
denetimli
değişikliğin
dönemden
dönmek
düzine
edinme
eide
enflasyonun
eroin
etler
eşitliği
fak@@
fikrine
fin
fiyatlarını
gel
gelebilir
gelme
getirilmesini
görüşmelerine
gösterdiler
ioc
istemediğini
işte
kalmayı
kaybetmiş
komşuları
korunmasına
kozloduy
kpc
kutlamak
listeye
memurlarının
meselesini
müziği
nedeninin
obradoviç
ortaklığı
ortamında
oynadı
parasal
prestijli
reformcu
ruhu
sahiplerinin
setlerle
siyasilere
sizi
stadyum@@
sunma
süper
sınırındaki
uygulamayı
uyru@@
vaadinde
yaklaşırken
yakınındaki
yaptık
yapıp
yollar
çer@@
çiziyor
çıkıp
ürünü
üzüntü
12,@@
550
86
abilecekler
adığını
ajan@@
albü@@
alman@@
anlaşmasında
antren@@
arın@@
atanması
avrasya
başlatılmasına
belirtirken
benze@@
bildirgede
biç@@
coş@@
dabilis
davasını
dedeağaç
delil
dengeli
değil@@
dinar
dnevni
dolayında
doğusunda
dy@@
düzenlemesi
edebileceği
ekipleri
endişeleri
endüstr@@
esir@@
evleri
fiyatların
fırtına
gayet
gelince
gent
getireceği
getirmesini
gezi
grupta
görecek
güler
hazırız
hesaba
hibe
idis
ilerletilmesi
ilkeleri
irade@@
istifaya
işçilerin
i̇liç
i̇sveçli
jen@@
kanal
kararıyla
katılmasına
kaygı
klere
korunmasını
kosanoviç
kovac
köklü
küçült@@
latin
liydi
maliyetleri
marty
mayacaktır
medyasına
meslek
nitele@@
okuma
olmazsa
olursak
oluşum@@
onayladığı
oyuncuları
paket
parçal@@
pavkoviç
pler
projelerini
riske
riç
sahipti
sayıları
seslenen
seviyesinin
standby
suçlama
sürdüğünü
taban
tamamında
taşımacılığı
terörist@@
tesislerin
transilvanya
türü
vadisi
vergiler
yabancılar
yalan@@
yapılar
yarattığını
yargıla@@
yaşadıkları
yemin
zedele@@
zinciri
çalışmayı
çan@@
çağrı
ölümünden
ürdün
üretiminin
87
alabilmek
alana
albay
anlaşmadan
arkeolojik
atarak
ayacak
baharda
baskılar
beklenmedik
belirtmiş
bildirge
bildiğini
borçları
bulunmadığı
danışman
deli@@
değiştire@@
donanım
duyuruya
düğünde
düşürülmesi
edeceklerini
ekipman
ekmek
engeli
ens
etmede
gittiği
giç
gordon
gününü
güvencesi
haftası
hazırlama
hazırlamak
hedefimiz
hediye
hektarlık
hiç@@
hüseyin
iciç
iddialar
ihmal
ilerleye@@
iliescu
imzalayan
i̇nsan@@
kademe@@
kalfin
kanton@@
kas
katılıma
katılımcılara
kesiminin
kimileri
koyan
kurallara
lil@@
malta
materyal@@
mesidir
milanoviç
nam
nesil
olabilmesi
olaylarda
personelinin
philip
polt
rütbeli
sağlanmasına
sergileniyor
sibenik
sir@@
sla@@
sonsuza
sosyalist@@
tahiri
tepkilere
tiş@@
türkçe
vatandaşlarını
vatandaşının
yang@@
yanın
yatırımcı@@
yavaşlat@@
yenilik
çalışmalarında
çoğunluğun
çıkardığı
önemdeki
240
6,5
aktör@@
alam@@
alınarak
anayasada
artı
artırıyor
asyona
atmış
açığa
bahsedil@@
başkent
bilmiyorum
borislav
borsası
bulunmakla
bırakıldı
dem
destekleyeceğini
değişikliklere
dikkatle
diyaloğa
düşünü@@
emez
esm
eğil@@
faiz@@
fitch
galerisi
gelmiyor
gerçekleştirdiler
gezisi
geçmişin
gömül@@
güneyinde
herkesi
heykel
hızlandıra@@
ico
ifadesinde
istedikleri
isterken
klerinden
kurulmasının
köpek@@
lilerin
liğimiz
lukoil
makine@@
maçında
mimari
müttefiki
nesovski
noktasında
ofisinden
olsaydı
oranlarını
plavsiç
projelere
rat
rim
role
rumlarının
saldırgan@@
saraybosnalı
skandal
sns
sonlarına
sözlerle
tamamlanacak
tedbirlere
teknolojileri
terörizm
tirece@@
topluluğ@@
tose
troyka
tıracak
umuzu
usulsüzlük@@
uçağı
yapıların
yorumları
yoğunlukta
yukarı
zek@@
çevirdi
çıkmasını
ödeye@@
ılıktan
1,7
650
93
adımın
airways
aktris
anayasayı
andı
araçlar
açacağı
bağımlılığını
biriminin
bol
buz
cenaze
cristian
crvenkovski
derek
değişikliğe
değiştirilmiş
dikil@@
dönmeye
düşündüğünü
edilirken
editörü
endeksinde
ermesi
eti@@
eyleme
fikirler
forumda
galibi
gerçekleştirilmesi
gevşek
güçlerine
haftadan
hazırlıyor
hillary
hizmetlerinin
hırsız@@
iminin
imzalamak
inanç@@
içme
kaldılar
kamusal
karşılayacak
karşılayarak
kurallarını
kurdular
kötüleş@@
lehte
lendiği
madık
mazsa
mekti
mensubu
misyonunu
müf@@
nms
oluşacak
otobüs
otomatik
oysa
paylaşımı
pel@@
pula
reel
rijeka
sayı
shkullaku
sonbahar@@
sovyetler
soykırımla
sunuluyor
sürdürecek
sıralamasında
taksi
teme@@
topluluk@@
uyan@@
uzlaşmacı
uzmanlık
veriyorlar
yaklaşımı
yanıtlayan
yapabil@@
yaptığ@@
yapıyoruz
yaşadığını
yaşın
yurtdışından
yürüyüş
çalışarak
çekerek
çete
ödülleri
önerilerini
örgütlü
ülkemizin
üstünlüğünün
ılırken
ımızdan
-ve
0,5
adası
adımların
anlaşmazlığa
arm
aydın
azalıyor
açarak
bab@@
balkanlarda
batıdaki
bildirgeyi
büyükelçilik@@
bırakan
chev
city
dak
destekledi
desteklemeyi
durgunluk
düm
düzen
düzenleyerek
edenler
eleştiriyor
eliç
endeksi
enflasyon@@
entegrasyonunun
era
erkek@@
gin
görmesi
görmezden
gösterirken
gündeminin
hali
hile
hukuka
iddianamede
ihtilafından
istemiyoruz
işlediği
i̇vana
kadınları
kalacaklar
kanadalı
kargaş@@
kasabasındaki
kavuştu
kaygılar
kaynaklarına
kentteki
kolaylaş@@
kolaylaştırma
komitesinin
korkuyor
koymak
kragujevac
kullanımının
kuruluşların
kuvvetlerin
körükle@@
kötü@@
kızı
les
memnuniyeti
mobile
müfettişler
naf@@
niş
onlardan
pierre
podgor@@
pozisyon@@
riskli
sadiku
saldırıyı
seviyelerde
stratejinin
sözlü
sıkma
tartışmanın
tartıştılar
tasarlanmış
tebrik
topar@@
trafiğe
traykov
tüketiciler
tığımız
uda
ulmasını
uyarıyorlar
vaka
vermeden
vukceviç
yasa@@
yatıyor
yaşamlarını
yaşandığını
yenlere
yönetilen
çalışmanın
çıktılar
önleyici
üstün
üyeliğinden
şartlarda
ailelerine
alardaki
aleksander
amadan
askere
ayrılacak
aşamasında
bağları
bağımsızlıktan
başlatılmasını
beklentileri
belediyede
bildirisinde
birim
borcunun
branislav
budva
bölgelerindeki
davaya
demokratların
denge
diş@@
dyukanoviç
düzene
egemenliği
elbette
endeks@@
enflasyonu
express
fabrikas@@
faydalı
fedil@@
filminin
freedom
gelirlerinin
gelişmesi
gerektiriyor
gerileme
gündemi
haftanın
hamle
hazırlanmasına
hırvat@@
iba@@
ihtilafın
iken
ilginç
iloviç
ittifak
i̇ddianamede
jones
kalmıştı
karşılamaya
karşılanması
kasının
kazanmıştı
kazı@@
konvansiyon@@
kullanıldığı
kurumlarında
kutlama
lular
media
mekanizma
mesafe
mezar
milutinoviç
müktese@@
müreffeh
müstakbel
müzi@@
oyuncular@@
pazarındaki
projelerinin
raufoğlu
reformun
rehin
ressam
riskini
saldırgan
sanatçıların
sağlam@@
securitate
stan
sunmayı
tavrı
teröristlerin
tildi
tipi
toplumda
udf
uefa
uygulamanın
uçağ@@
verilmesine
yargıçlar
yatırımlarının
yaşanacak
yetkisine
yves
yüzleş@@
zenica
öcalan
üreten
üyelerin
şahıs@@
şair@@
şala
şoför@@
19.
9.
alanların
almakta
almasının
anki
anlattı
arayan
atletizm
attığını
ayrıntıları
açılmasına
başlamadan
bileceğinden
biliyor@@
blago@@
bölücü
bölünmesi
büyükelçileri
büyükelçilik
cinin
dairesine
dal
davranış
değerlendirmesi
ederse
etkiledi
etraf@@
ettikten
fifa
galibi@@
genişletme
gerçekleştiği
gerçekte
gösteriliyor
göçmenler
haritası
hastanede
hem@@
hissedil@@
huzurunda
ikincisi
ilaç@@
ilinde
irades@@
isaf
isterim
kabinesinin
kanıtla@@
karanlık
kasaba@@
katılacağını
kazanmaya
kenar@@
keşif
kiler
kiral@@
koleksiyon@@
koruyacak
koruyan
kovska
kuracak
köprüsü
kısıtlamaları
kıyısı
laştırmak
luğunun
maden
madıkları
mandiç
meli@@
meyve
milyon@@
mol
mücadelesi
müzakerelerindeki
nam@@
niyeti
olmadıklarını
olum@@
parası
park@@
pazarın
planlarına
portal@@
protokolü
reş@@
saha@@
sarf@@
sağa
seçeneğ@@
sürdürülebilir@@
sıraladı
tahminler
takas
takviye
talebiyle
tamamlay@@
tartışmaları
tatlıses
topiç
utanç
uzunluğundaki
vlatko
yapımına
yayınlanacak
yazarlar
yoksulluğu
zirvesinin
çabalar@@
çalışmasının
çar@@
çekilen
önlem
üğünü
şarap@@
--@@
91
akış@@
alanına
alışverişinde
analistlere
anlamıyla
anlardan
antalya
artıracağını
ayrılma
baran
batının
bağlılık
bb
belgesi
bildiği
bnn
bor
borissov
burası
böylesi
bül@@
damg@@
dersler
dicarlo
dokunulmazlık
domuz
durdurma
duyuru
duyuyorum
dönüştürme
düzenledikleri
ekolojik
erke@@
faktör
farklılıkları
fikr@@
gelişmelere
gelişmelerin
gençlere
gerekmektedir
geçmeye
gösterdikleri
göstermeleri
günden
halihazırda
hepimizin
huzuruna
hükümetinde
ilmesinde
imiz@@
işletmeleri
jansa
joachim
kaldıra@@
kampanyasını
karşıladığını
kaygıları
kaza
kazı
kaçırma
kesimler
keşfedil@@
konseri
korsan
koşullarını
kurbanları
köprünün
kı
kırılgan
lağvedil@@
limaj
lisans
maaşlarına
maddeleri
metin
nehir@@
nova
olimpiyatlar
olmamız
onayına
onunla
orduya
per
reddettiler
reddettiği
riskler
sarf
sağlayabilir
silahları
siyasetçilerin
sosyalistlerin
suçladılar
suçlayan
suçlular
sü
tahminlere
taleski
tekne@@
tenisçi
toplantısını
topluluk
toplumlarının
uyrukl@@
uzatma
venizelos
yaklaşıyor
yayımlanan
yaşamın
yecekler
yn
yönetim@@
yürütecek
zorluk
çağırıyorum
çekmeyi
çıkarmayı
çılık
örgütlere
ürünlerin
üyesini
şehr@@
şirkete
21.
5,5
79
adaya
adığı
alabilir
alışkan@@
anlaşmazlığın
apart@@
arabulucu
arka
avukatlar
açtılar
bale
bayrak
bağımsızlığın
başarısını
başarıya
başkanlarının
becerilerini
belirleyen
bil
birincilik
bugünlerde
cay@@
clark
damgasını
duğuna
ekonomilerinin
eleştiriler
emekliler
evin
fiyatlarına
gelişen
gelişinden
genişletilmesi
gerçekleri
gerçekleşmesini
gerçekleştiğini
getirilmesine
geçiriyor
girmesini
görevinde
güçlüklerle
hareketini
havaya
hazırlıklı
hızı
ideal
ifşa
ihalesini
ildiğini
ileş@@
imine
irish
işbirlik@@
i̇sa
i̇y@@
kadare
karşılanacak
kimliğini
konaklama
kongre@@
koridoru
krist@@
macılar
maf@@
mallarını
manastırı
masum
may
medyasında
memnuniyet@@
mess
mirasının
muhammed
müzik@@
niyetinde
norm@@
olacağından
oranıyla
patten
projeyle
protestolara
reformunu
resim@@
romano
sahibiz
santralin
sezon
sicil@@
sistematik
siyasetin
slovak
sorular
soruşturmada
suçlarının
sözleşmenin
tanın
tetovo
topalli
trend@@
tümgeneral
uzaklaş@@
vaat
vermekte
vlasiç
yaklaştır@@
yapmaktan
yaptıklarını
yaptığımız
yarısını
yarışmaya
yağmur@@
yeter@@
çu@@
çıkarken
ödeyecek
ödülün
ülkesiyle
şehri
şunu
1,1
ajans@@
akti@@
amaçlar
anahtarı
anketine
artmasını
asayiş
ayrımcılığa
barajını
başladığında
başlamaya
başlı@@
başsavc@@
beklenirken
belirlediği
besa
beyin
bilmeleri
borçlu
bulunduğumuz
cm
dergisinin
derinleş@@
değerler
dönemdeki
dönüştü
dükten
düzenlemeleri
edileceği
esas@@
farklılıklar
farkı
fuele
gelebilecek
geliyorlar
gencin
gracanica
görülmesi
görüşmesinde
haberdar
hitap
imzalaması
inisiy@@
istlerin
izol@@
jandrokoviç
jociç
jonilda
kadan
kalıntıları
kalırken
kapattı
katılmaları
kayd@@
kayda
kazanırken
kaçağın
kentlerinde
koalisyona
kovuşturma
kredilerin
köş@@
kısmi
kısıtlı
kıyısında
laşmış
leştirmek
maaşlarının
maddelik
mahkemelerde
mediğine
mese
miktarlarda
miodrag
misko
mit
olanları
ortal@@
pahasına
performansını
ptk
rekabeti
restore
rumsfeld
seks
sektördeki
sponsorluğunda
suikastı
suçlara
söyleşide
sözleşmesi
sına
sınırların
sırplarla
tamamlaması
tamamının
tedbiri
tedbirlerine
verenler
vermediğini
yalılar
yanındaki
yanıtı
yapmanın
yarış
yenile@@
yerlere
yeş@@
yunanlıların
yuv@@
yönetimiyle
zarko
zorunl@@
çare
çekici
çerçevesi
çoğunluğa
ölen
öngör@@
örgütüne
üretilen
ımının
şüphesiyle
1500
1970
3,3
abilen
adalet@@
ah
akşamı
amiral
anayasasına
anlaşmazlıkların
ardı
athan@@
atık@@
atılım
ayı@@
açabileceği
ağaç
barbu
başarılar
başkanını
besle@@
bill
binaların
budur
corporation
demokrasiyi
devir
devletlerin
değiştirdi
diyoruz
doğrula@@
dönüşleri
dönüştürül@@
düşük@@
edilerek
eserler
etmediği
etmelerine
gelmektedir
geniş@@
gerektiğinin
gereğinin
gitmeye
görüşlere
görüşmelerini
güne
güçlük
hakar@@
hakkının
hasan
hediye@@
hiçbirinin
ilkokul@@
imzalanacak
imzalayarak
indirim
insanlarla
isimlerinden
ithalatı
kaderini
kapatmak
karac@@
katma
klinik
koci
kullanmayı
kurbanlar
kurumlarıyla
kılav@@
kısıtlama
leşmenin
limay
lüğünün
madılar
mam
manız
mediler
memeleri
memesini
mihai
militan
miras@@
mirasını
mode@@
muaf
mutlak
nen@@
oluşturulan
oylamayı
papademos
pazarlarına
pliva
rip
sahada
savaşa
sağlamaları
sektörlerinde
seyrediyor
sezonu
siber
sokaklara
sorumluluklarını
sözleriyle
taraftarları
taslağını
teftiş
tesine
toprakları
turnuvası
tutuklanıp
tümünü
usul@@
uzlaşmayı
varşova
venedik
yakınlaş@@
yelpaz@@
yöneten
zev@@
çavuşesku
çağrılarına
çocuğunun
önyarg@@
öyk@@
üme
üstlendiği
üzüntüyü
ılmaya
şahin
şef@@
altyapının
altyapısı
altyapısını
aması
andrija
arabistan
arazi
atanan
açıklamaları
açıklayan
ağında
barikat@@
baskının
başlamasının
başlatıla@@
birleştirilmesi
bulgular
bütçeye
bırakma
canlandırmak
colin
cuk
cumhurbaşkanına
daci
demokratikleşme
dolandırıcılık
edebilmek
edilmemesi
efsanevi
elere
ender
eyle@@
eylemlerinin
eğilim
filmiyle
gerginliğin
gerçekleştire@@
geçirilmesini
graf@@
gördükleri
görüşmelerinde
göstere@@
gözlerini
gözüyle
güvenin
hakemlik
halktan
hasara
hıristi@@
iktidarı
ilemez
ileriye
ilerlemesinin
ilişkili
ilkelerini
imizden
imzalanmasının
istediler
istismar@@
işçilere
i̇slam@@
kadını
kalkınmayı
kart
kaynaklarından
kendisinden
kiril
kobi̇
kristina
kriterler
kurması
laştırılması
liderlerinden
ligi
lokomo@@
maddenin
maliyet
medeniyet@@
merkezini
metrekarelik
mitreva
moldov@@
muaf@@
nokia
okur@@
organizasyon@@
organizatör@@
oteller
otoyolun
oturumunda
otuz
oynadığını
oğl@@
parçaları
pazarda
piyasaları
platform
politikas@@
prosedür
rafa
rescu
sahil@@
schook
scotsman
sebep@@
sektöre
semin@@
seçmenlere
sigar@@
sigortası
soruşturmalar
soruşturmaya
spekülasyon@@
suçluları
tedav@@
tesisler
turunda
tutarlı
tının
varlığına
varna
veles
vizyon
who
yaratılması
yarıya
yarışında
yeceklerini
yürütülüyor
yüze
yıldönümünde
zbogar
zede@@
çalışmakla
çıkarıyor
ödemesi
ücreti
ümün
ürünlerini
ılabileceğini
şüpheliler
3,2
ailelerin
alışver@@
amadılar
anlatan
anlaşmazlığının
asi
atama
ayrılmaz
azami
aşan
barındıran
başarıs@@
başlı
birbirlerini
birinden
biçimi
bulduğunu
cerra@@
dayandığını
dediği
denetim@@
desteğe
disiplin@@
diyalogu
doğa
doğudaki
durdu
duyurduğu
dönme
döviz@@
düzenlemenin
düzeyi
enleri
entegrasyonunu
etkiler
etkinlikleri
evler
eylemlerine
eşitlik
faaliyetlerde
feci
fos@@
gerektiğinde
geriledi
geçin@@
gördük
haftasonu
hallet@@
hari
hastanesi
hayatlarını
ihtiyaçlarına
ilerletmeye
imleri
indi
iptal@@
ismini
iyiye
işlemleri
kalem@@
kandiç
kanı
karas@@
katil@@
katlan@@
kazanmış
kaçakçılığının
kendimizi
kentinden
komitesine
komutanlığı
kouchner
koç
koşu@@
kumanovo
kuvvetlerine
kısım
landırma
lerimize
luğuna
lüsü
mahal@@
meclisten
meto@@
metrajlı
mile
milletler
müttefikleri
nereye
niteliğinde
olduğun@@
ombuds@@
oradaki
oranın
osetya
oynamaya
parlamentoyu
politikasında
sayın
shantek
sibiu
siyasetten
soruyor
sıkça
sınırını
sırb@@
taksi@@
tanja
tanıklık
tanımlanan
tanıtmak
taslağı
tedbirlerinin
telif
toplay@@
up@@
usulsüzlük
vaatleri
velchev
vlahoviç
www.@@
yaratmaya
yasaklayan
yaşları
yeceğiz
yöntem
yöntemleri
yönün@@
yürüte@@
zanlısının
zayıflat@@
ziç
zukorliç
çağrıları
çekmesi
çoğunda
çözümünde
çıkıyorlar
önerinin
önlemeye
ımdan
2,3
3,6
abart@@
adada
alarm
aldıklarını
alet
almasından
andan
anti
araştırmacılar
artarken
ateşkes
aşır@@
batısında
biliniyor
birlikleri
bizlere
canlan@@
ceph@@
değerlendiriliyor
değerlendiriyorsunuz
disiplin
düzenleyecek
düştüğünü
eylemlerin
faktörler
fas
fiyatlarında
gas
gazetenin
gazze
getirmeleri
geçmesini
global
görüşül@@
günter
güz@@
hazırlayan
heykeli
hızlandırması
ilgilenen
indeydi
infaz
ipa
izlediği
işletmelere
i̇nsani
jankulovska
jimnastik
kalabilir
kalkınması
kararlaştırılan
katkılarından
katılmış
kaydedildiğini
kaynaklan@@
kazanmasına
kaçan
kle@@
kli@@
kod
kopar@@
kredileri
krediyle
kullanmakla
kurulun
kurumunun
kusur@@
kutladılar
matiç
mayacaklarını
medik
memesine
merci@@
meyeceklerini
mladenov
niş@@
olacağ@@
olasılıkları
olaylardan
oya
pazara
pd
petroleum
planladıklarını
prote@@
rej@@
riskine
rolüne
rotası
sahiplerine
sahneye
sivillerin
skandalı
sohbet
sonuncusu
sorunlarıyla
soruyu
sürenin
sıradaki
tamamlanmış
tanımaya
tanıyor
tarafça
tarafındaki
tekrarlan@@
telefonla
tutarındaki
tıkan@@
ulaşmasını
uluslar
vatandaşlığı
voleybol
yakalandı
yavaşla@@
yaşamış
yenilg@@
yerler
yetkililerinden
yoldaki
yoğ@@
yönetime
zamm@@
zdravko
çalışacağız
ödemeyi
önün@@
öğleden
şahısların
13,@@
2,2
450
acağının
adır
ai̇hm
alacaklar
algıla@@
ansa
arhin
atlet@@
ayaklanmalar
açılışında
ağaç@@
aşkın
balkanların
barışçıl
bayrağını
başbakana
beraber@@
biridir
birincisi
birliğinden
business
bölgelerine
bürokratik
ciya
cyprus
cılarından
damir
dat
dimitar
diyalogun
dostu
downer
dru@@
durgun@@
duruşmada
dönmesi
düzenleyici
elimizde
etmiştir
filarmoni
filmde
fırtın@@
gelirler
gelmeye
gemisi
getirip
gönderdiğini
görülmeye
hassasi@@
havaalanının
haysi@@
hazırlandı
hazırlanmıştır
haç
hektar
herman
hissediyor
ileştir@@
isteksiz
isteğiyle
istifası
istihdamı
izlenmesi
izleyecek
işgücü
işlerine
i̇nsanların
jandar@@
joseph
josip
kale@@
kanat@@
kapıları
karşılamada
karşıt
katliamının
kesinleş@@
kti
kullanması
kılıyor
larım
leştirilmesi
m.ö.
madıklarını
madıkça
makamlara
malzeme
marian
meblağ
milyona
nazi
ola
oluşturacak
onaylama
organizatörler
organları
oş@@
perakendec@@
politikanın
pur@@
refahı
reformunda
rer
rudoviç
sayfa
sayımının
seçenekler
sitesine
sky
suikasta
süreceğini
süresince
sıç@@
tanıdı
teklifini
teknolojis@@
temizle@@
tereddüt
tony
toplandılar
turistlere
turizmin
tutuklandığını
tutuklanmasını
tüketicilerin
tüğünü
tıyla
umutlar
umutlarına
unsurların
unutul@@
uzay
uzmanlarının
uğrayan
verebilir
verimlilik
verimsiz
yakınlardaki
yanlara
yanısıra
yapıyordu
yesinde
yürütü@@
zadar
çalıştıklarını
çatısı
çocuğa
çözümlen@@
özelleştirmenin
ücretler
üretken@@
üssü
ımla
şikayette
şüphelinin
750
acele@@
acente@@
adamın
akın@@
alp
altyapısının
altından
amacımız
amayız
anders
aniden
annesi
arifesinde
askerinin
ateşe
ayıran
açarken
açıklamasını
başlatmayı
belirtmişti
bernard
bizden
borcun
bors@@
busek
bırakarak
bırakılması
canlandırma
cezalarını
danışmanlarından
daviniç
dayanılarak
demokratik@@
denis
depolama
dick
dikkatini
dile@@
donanımı
dönemindeki
dönemini
dönüyor
düşünüyorlar
dıklarına
ekibin
ekoloji
ekonomisinde
eksikliğinin
elena
endişelere
ertelendi
ertelenmesi
ettiğimiz
europol
eurostat
evn
eğlen@@
galerisinde
gelişimine
gelişimini
gensoru
gitme
göndermeyi
görünmüyor
göstermiş
gündemine
güçlükleri
haklara
hazırlıklar
hemşire
hepsinin
hisselerinin
ilişkilerine
imler
imzalanmasından
istatistiklere
işleyişini
i̇sviçreli
kablosuz
kaldırıldı
kampında
karşıl@@
kaydettiler
keli@@
kesimin
kipriyanu
kolaylaştıracak
komple@@
konulardaki
kore@@
kou@@
kriterlerine
kuruluşundan
kurşun
kutlamalar
leriniz
liderlerine
mallara
malî
marin
melerinden
mezun@@
mustaf@@
nok@@
numar@@
okulların
okum@@
olanaklarını
olasılığına
olmadığının
oranlarının
osijek
parlamentosunda
planlayan
profesör@@
radyo@@
ranko
rezer@@
rolüyle
saatten
santralleri
sağlamada
sağlamasını
senar@@
seçimin
seçmenin
sistemde
siyah
star
suriyeli
süreciyle
sürü
sıralamada
tabanlı
tahsil
tazmin@@
topluluğun
tutulması
tutuluyor
uygulay@@
uygunsuz
verimlili@@
visegrad
yasını
yazın
yetkililerini
yolculuğ@@
yuvarlak
yönlendir@@
çalışmasına
çarptırıldı
çoğul@@
üreticileri
üstlenecek
ıklı
ımlı
şahıslar
1,8
acaklarına
acele
aktiv@@
akıl
akşam@@
alkalay
alkol@@
almıyor
alınacağını
analizi
anlaşmalarını
anlaşmasıyla
avukatları
azınlığı
açıklık
bakanlıklar
bancroft
bazılarını
bağdat
baştan
berab@@
bolu
btv
bulduğu
bulunuyoruz
büyüyor
bırakıyor
cezbet@@
curoviç
deklar@@
deleg@@
demektir
destekten
devamında
diktatör
diş
dokuzuncu
duyurusunda
duğumuz
dönemlerde
düzeydeki
ekonomide
emr@@
enerjis@@
engellerle
eserlerinin
evlerinden
fikrinin
formül@@
fuara
geçirmeyi
gurur@@
görmeyi
güzellik
güçlendirmeye
harekatı
hatırlat@@
hazine@@
hellenic
hrant
idaresinin
ilerletmenin
imtiyaz
imzalama
imzalanmasını
incelemeye
ischinger
istendi
işçileri
kai
kaydediyor
kazakistan
kentlerde
konulardan
konuyor
korkuyorlar
korumanın
kurumlarından
liderliğinde
lulzim
lıydı
maaşı
map
memnunum
memurlar
mensupları
mhp
mühendisliği
olmayacaktır
ortamın
oslo
patlayı@@
piyade
plak@@
ple@@
pomp@@
radyosuna
romenler
sar
sariç
satışları
scepanoviç
selimi
seri
simgele@@
sinyallerini
siyasetç@@
sos
soğuk@@
srebrenitsa
sreten
sunarak
suçlarında
söyleyebilirim
tahran
tartışıl@@
taşımac@@
tesli@@
tezah@@
tile@@
trablus
tutuklayıp
tuz@@
tören
umutlarının
umuzun
usulsüzlükler
uğraşan
vermeyeceğini
yapay
yapının
yapısını
yaratacağı
yatı
yerlerini
yetkisini
yüzyıla
yüzücü
zorlaş@@
zorunluluğu
çabalarından
çatışmalarda
çetesi
çöze@@
ödemeleri
ölen@@
önlen@@
özkök
ılma
şehrin
şük@@
.net
10.
14,@@
15.
2,9
89
adındaki
aklan@@
alışveriş@@
amamış
amaçları
anketin
anım@@
anıt@@
ayarak
ayları
bakanlığında
bağlıyor
başkanlığından
başkentinin
becerileri
beklediklerini
beklemeye
beklentiler
bh@@
bilirdi
bulunup
bı@@
cad@@
cd
civarındaki
dayak
denin
dilinde
diya
doktora
duliç
durumlar
düzenlemeye
düştüğü
ecz@@
edebi@@
efsanesi
eklen@@
engelledi
erkeklerin
eserlerin
etin
etken
etmeden
eylemin
ezya
eşy@@
faaliyetlere
felake@@
fuar
gemis@@
generaller
getirmesine
gide
gittiler
gri
gruplara
gsm
görüldüğünü
güvensizlik
güçlendi@@
harcamalarının
hastaneye
hatırlattı
hepsinden
hissesinin
hizmetlerin
imzalamayı
imzalamış
imzalanmış
iradeye
ite@@
işgal@@
janez
kabulü
kamyon
kapanış
karargâhı
karşılaması
katıldığını
kaybettiğini
kesimleri
kesintiler
kitapları
konseye
koyduğunu
krizini
krstiç
kullandığını
kullanıcı
kullanıldı
kurmuş
kurumlardan
kökünü
kıyı@@
likidi@@
luksiç
lıklardan
makamlarıyla
maliyetinin
malılar
mamıza
metohija
militan@@
mladjan
nar@@
nişan@@
olasılık
olduktan
olmalarını
onayını
oynayacak
pod@@
politikaların
prosedürü
prosper
protestocu
protokol
provokas@@
reddedildi
rekabete
remikoviç
rüzgar@@
sahnesinde
samir
semp@@
senaryo@@
sever
seyahat@@
sik@@
sinyal
sipar@@
sistemindeki
sorumlulukları
suçlarını
söylenen
tablo@@
tahminlerine
tahvil
talebin
tanıması
tapın@@
tarafını
temeli
toplantıları
unsurları
uya
vakası
vakıf@@
verilerin
verimliliği
viktor
vurgulayarak
yaktı
yakup
yaralandığı
yurt
yöntemi
zıt
çalıştıkları
çeş@@
çiftç@@
çıkan@@
öldürülmesinin
öldürülmesiyle
ölçü@@
öngörüldüğü
şebe@@
şehit
şemsi@@
þ@@
̇
º@@
é@@
é
*
q
â
ë@@
û@@
б@@
=
ý@@
°
ë
š@@
\
ć@@
@
î@@
ó@@
č@@
ž@@
&@@
^
í@@
г
г@@
#
$
_
{
±
º
ø@@
đ@@
р
я
}
©
ª@@
½
¾
á@@
ã
è@@
ï
ð
ñ@@
ć
μ@@
а@@
и@@
л
л@@
р@@
у@@
х
ъ@@
