<pad>
<eos>
<unk>
the
,
.
of
in
to
and
a
&quot;
for
&apos;s
@-@
is
on
that
with
by
as
/
said
will
)
(
it
be
are
has
have
from
at
an
eu
he
was
kosovo
--
not
this
its
minister
serbia
european
country
also
government
we
which
i
&#91;
&#93;
their
but
new
his
they
year
would
-
been
turkey
two
s@@
were
one
re@@
more
international
all
countries
bih
after
president
who
or
prime
:
serbian
times
other
macedonia
political
co
southeast
e@@
belgrade
state
i@@
there
us
about
g@@
party
croatia
foreign
people
in@@
over
according
first
told
c@@
%
euros
last
than
during
setimes
up
o@@
turkish
operation
years
only
p@@
between
un
s
can
de@@
en@@
some
economic
t@@
nato
an@@
should
albania
un@@
no
bulgaria
v@@
if
former
f@@
montenegro
ar@@
had
k@@
d@@
police
talks
against
while
ing
time
z@@
agreement
per
romania
;
world
security
greece
may
y@@
under
however
&apos;
war
most
could
ti@@
says
three
al@@
public
n@@
u@@
europe
parliament
t
now
support
li@@
10
our
j@@
11
well
e
since
m@@
into
when
out
part
process
region
monday
such
national
croatian
do
officials
law
them
er@@
greek
cent
many
b@@
albanian
bosnia
la@@
as@@
states
di@@
con@@
meeting
report
w@@
news
so
because
o
general
herzegovina
including
h@@
end
is@@
members
wednesday
macedonian
member
those
elections
local
or@@
crimes
authorities
what
ed
council
must
a@@
democratic
expected
day
l@@
she
se@@
month
09
tuesday
es
images
pristina
any
made
among
high
12
ted
getty
week
me@@
bank
05
work
07
r@@
06
both
say
these
court
reuters
take
04
before
08
ministry
serb
03
way
ma@@
si@@
military
st@@
group
membership
y
business
issue
afp
ex@@
project
number
future
still
ra@@
te@@
being
ri@@
at@@
ch@@
media
next
parties
march
ic
development
visit
le@@
commission
bulgarian
al
june
led
m
citizens
ro@@
progress
october
dis@@
il@@
integration
leaders
union
thursday
?
through
energy
december
decision
ac@@
corruption
th@@
ad@@
it@@
status
you
january
centre
held
&apos;t
l
very
on@@
company
balkans
reforms
chief
announced
important
where
ce@@
accession
agency
romanian
relations
long
based
saying
leader
see
economy
institutions
place
november
july
won
system
make
skopje
plan
added
independence
ul@@
sa@@
er
be@@
opposition
april
community
met
months
ne@@
called
sarajevo
even
regional
serbs
tribunal
four
power
united
policy
rights
towards
efforts
issues
balkan
organised
sunday
euro
k
help
head
september
reform
various
able
her
defence
office
lo@@
situation
c
ting
sources
february
festival
crisis
need
vote
bosnian
same
athens
right
main
second
financial
him
another
cyprus
ur@@
around
official
border
ly
continue
several
billion
set
crime
signed
de
programme
pro@@
negotiations
ts
deal
social
ers
peace
election
market
ol@@
20
u
trade
measures
without
following
justice
d
key
ec
ha@@
major
ci@@
ethnic
become
ovic
possible
conference
ate
within
op@@
co@@
recent
ap@@
am@@
move
special
good
os@@
western
five
use
vi@@
past
bo@@
statement
event
left
august
open
problem
problems
friday
until
gu@@
pre@@
1
companies
mi@@
then
tadic
further
mission
human
due
sofia
free
much
ap
15
director
how
rs
case
su@@
mo@@
zagreb
brussels
deputy
top
team
days
g
cultural
ak@@
...
city
02
forces
ruling
ministers
investment
ge@@
secretary
current
man@@
sector
join
central
ds
ab@@
down
qu@@
ag@@
already
r
did
tirana
im@@
representatives
russia
press
agreed
level
gas
01
30
women
plans
coalition
ation
does
es@@
tra@@
full
hague
just
meet
p
took
mar@@
meanwhile
representative
budget
x@@
back
ist@@
go
2004
ankara
3@@
education
force
parliamentary
old
bi@@
areas
lu@@
six
ten
like
children
far
joint
start
bucharest
early
tr@@
istanbul
stability
army
standards
off
late
2@@
order
role
us@@
25
better
increase
imf
ba@@
construction
association
my
opened
tions
best
2
quoted
clear
less
ot@@
want
conflict
final
19@@
mladic
used
earlier
um@@
information
think
solution
film
each
found
results
get
culture
money
growth
come
ter@@
$
conditions
av@@
province
ter
per@@
step
change
to@@
pe@@
together
ding
working
daily
remains
ber@@
3
northern
majority
ties
erdogan
interest
line
cases
came
own
although
currently
area
sp@@
experts
4@@
fight
2007
el@@
candidate
men
par@@
life
gh@@
den@@
criminal
action
17
tourism
ke@@
2008
summit
cypriot
tion
ago
legal
cannot
campaign
given
administration
independent
organisation
presidency
provide
university
h
reported
16
politicians
position
germany
icty
da@@
do@@
projects
term
remain
urged
building
albanians
implementation
every
put
whether
believe
counterpart
different
include
he@@
capital
mil@@
despite
received
third
later
strong
ahead
face
taken
hope
show
ated
over@@
bu@@
2006
27
ating
13
18
ver@@
min@@
run
total
needs
positive
2005
alliance
town
ni@@
soon
bid
finance
health
large
constitutional
changes
for@@
ir@@
ded
freedom
control
global
along
ar
least
14
gi@@
ko@@
name
z
groups
am
me
so@@
ment
north
6
dialogue
violence
os
period
yugoslavia
2009
ka
making
republic
res@@
million
tic
enlargement
red
home
saturday
ta@@
unmik
ic@@
prosecutor
du@@
gra@@
review
commissioner
ent
democracy
funds
hi@@
yet
oil
har@@
young
iraq
anti
24
serious
near
russian
50
ia
lack
boris
likely
montenegrin
visa
largest
constitution
nation
few
post
protection
result
ce
nearly
8@@
arrest
bring
family
others
kostunica
trial
interior
le
ru@@
4
laws
21
man
bloc
reached
6@@
potential
ready
return
society
2010
decided
fi@@
po@@
n
7@@
5@@
give
ov@@
especially
though
small
b
1@@
recently
nations
tax
improve
taking
ve@@
7
adding
se
tri@@
republika
inter@@
necessary
population
goal
needed
find
non
service
great
approved
rate
5
italy
list
south
.@@
22
committee
slovenia
vo@@
aimed
srpska
privatisation
significant
pay
ev@@
reports
science
8
discuss
assistance
resolution
began
car@@
initiative
close
diplomatic
mon@@
b92
private
boost
focus
et@@
services
german
sports
activities
ko
troops
point
ambassador
don
opening
19
bar@@
established
mu@@
school
arrested
ff@@
road
france
kfor
karadzic
noted
fact
seven
today
23
eight
osce
strategy
28
milosevic
ou@@
steps
annual
plant
26
ja
launched
v
again
customs
lead
rule
bilateral
no@@
ut@@
1995
property
domestic
affairs
ina
ser@@
com@@
washington
workers
too
increased
ist
seen
ity
living
minority
warned
whose
2003
latest
rehn
adopted
akp
production
ec@@
under@@
regime
wants
trafficking
men@@
build
infrastructure
expressed
leading
pu@@
charges
difficult
low
ensure
stressed
en
students
ju@@
common
research
commander
here
hold
reporters
round
eulex
analysts
pressure
real
tes
we@@
debt
zoran
mis@@
sti@@
pkk
half
done
proposal
ally
bbc
envoy
higher
1st
da
expect
ous
em@@
referendum
pri@@
coming
af@@
movement
ise
ov
summer
proposed
history
ica
sur@@
legislation
9
involved
means
institute
nikola
ban@@
known
les
ling
ten@@
technology
date
sign
house
committed
voters
ban
prices
fe@@
f
ahtisaari
discussed
fully
ste@@
radio
pos@@
started
asked
industry
once
terrorism
brought
kurdish
roma
weeks
gdp
j
receive
can@@
almost
tu@@
ati@@
terms
award
air
cen@@
effort
mer@@
price
rather
bur@@
allow
job
religious
yugoslav
issued
cabinet
ons
organisations
29
40
competition
document
1999
investigation
water
cost
pr@@
related
ge
hopes
stan@@
begin
killed
rec@@
failed
ings
age
dpa
data
ceremony
reach
ies
berisha
ana
cor@@
journalists
delegation
going
illegal
direct
british
entry
ki
know
points
prosecutors
communities
investments
sh@@
french
reportedly
ca@@
tv
voiced
br@@
across
ary
ho@@
jovanovic
form
electricity
enough
nine
basescu
civil
forward
responsibility
scheduled
senior
access
department
judicial
planned
eastern
ty
george
included
similar
considered
victims
ations
biggest
side
internet
fair
pipeline
present
environment
includes
investors
dispute
behind
operate
fund
island
nuclear
particularly
training
might
presidential
credit
described
sides
offer
attacks
average
her@@
released
atlantic
gul
pol@@
comes
olympic
sanader
east
por@@
san@@
sent
address
chairman
network
addition
attended
ca
entity
ever
forum
partnership
politics
der@@
sea
short
file
responsible
the@@
go@@
natural
capacity
your
tan@@
create
ended
win
judiciary
presented
az@@
instead
strategic
certain
jan@@
went
ine
loan
officers
land
concern
provided
followed
hard
ovski
ces
hand
never
trans@@
ven@@
call
calls
5th
keep
operations
confidence
stabilisation
previous
became
exhibition
fer@@
declaration
son
board
fa@@
framework
ski
ta
dr@@
complete
governments
site
example
9@@
assembly
interests
thaci
2002
bor@@
regarding
soldiers
study
terrorist
candidates
100
ant
published
dra@@
aid
opportunity
tayyip
deficit
recep
mal@@
management
participants
theatre
tor@@
mandate
success
sen@@
visited
agenda
outside
importance
single
big
federation
impact
trying
gen@@
markets
ments
travel
re
beginning
cu@@
gruevski
ren@@
armed
confirmed
live
events
sub@@
der
srebrenica
lower
accused
games
60
mit@@
view
2001
prison
question
required
thousands
having
transport
jobs
why
pl@@
banks
act
ch
sch@@
ian
muslim
priority
staff
criteria
debate
lost
spokesman
2011
del
ger@@
pen@@
12th
art
exchange
jo@@
lan@@
additional
conducted
draft
ivo
cl@@
agreements
ig@@
med
ph@@
challenges
fo@@
ls
0@@
ck
king
ses
completed
pledged
food
igor
cer@@
ence
implement
w
wanted
continued
highest
professor
alleged
ft
successful
gor@@
itself
enter
ratko
je
kovic
cur@@
gar@@
tive
2.@@
comp@@
des
joining
inc@@
overall
vojislav
whole
abroad
joined
unemployment
commitment
interview
works
indictees
opinion
respect
6th
labour
out@@
iz@@
ponte
tourists
implementing
path
signing
technical
cr@@
pa@@
play
idea
prevent
votes
3rd
village
als
museum
fighting
launch
mayor
municipalities
pec@@
31
8th
charged
elected
ised
olli
using
concerns
4th
stand
threat
away
dan@@
mor@@
ve
things
establish
up@@
10th
15th
7th
amount
judges
paid
welcomed
poor
series
agree
ali@@
austria
doing
ep
compared
ged
everything
products
rates
attack
invest
estimated
firm
failure
seeking
football
te
vis@@
ak
bro@@
church
explained
kar@@
stra@@
victory
weapons
often
share
turn
1992
2nd
cri@@
ans
ble
response
starting
facing
mas@@
something
tur@@
little
mobile
3.@@
tal@@
middle
calling
field
podgorica
protest
session
faces
gotovina
slobodan
unit
au@@
basis
built
ces@@
hungary
suspects
continues
criticised
cre@@
cypriots
borders
polls
documents
leave
participation
passed
reduce
djindjic
evidence
planning
socialist
cra@@
gan@@
prospects
schools
tar@@
x
accept
speaking
ying
authority
bal@@
han@@
hours
pan@@
participate
policies
rules
9th
ongoing
iti@@
lawmakers
effect
risk
language
presence
17th
aims
fin@@
front
owned
5m
arrived
ay@@
mesic
communist
gr@@
mir
pla@@
requirements
saa
tly
entire
indicted
rejected
popular
len@@
death
luka
ability
achieve
greater
solana
20th
message
21st
islamic
quality
becoming
car
parts
stop
ashdown
minorities
package
cut
offered
resources
sed
light
rise
consider
speaker
tender
throughout
reason
try
anniversary
chance
created
influence
pro
seats
survey
britain
territory
families
kr@@
longer
worth
murder
obligations
recognise
strengthen
ali
ction
est
exports
ry
performance
structures
suggested
course
youth
banja
book
closer
mid
believes
goods
na@@
tre@@
2000
crucial
sto@@
el
actions
always
italian
ful
bri@@
growing
ran@@
thus
war@@
york
gold
promote
remaining
1990s
businesses
11th
closed
ath@@
century
dayton
je@@
recognised
19th
and@@
divided
papandreou
supported
themselves
et
funding
inflation
specific
fall
genocide
active
bil@@
cup
black
iran
self
ates
demand
increasing
70
declared
hal@@
music
seek
vice
airport
ohrid
il
kind
ova
shows
tor
la
sion
equipment
fiscal
sor@@
officially
orthodox
ism
ler
west
zone
but@@
ek@@
involvement
ked
ku@@
mitrovica
neighbouring
protect
tion@@
achieved
cul@@
died
television
radovan
southern
claims
experience
indictment
ters
analyst
citing
decide
recognition
serve
wor@@
decisions
immediately
ka@@
mark
matter
olympics
ders
pi@@
slovenian
ac
implemented
leadership
look
tro@@
28th
bas@@
either
approval
concrete
moscow
operating
allowed
figures
prepared
stable
embassy
existing
levels
1.@@
climate
effective
km
stri@@
van@@
annan
split
sure
challenge
executive
nothing
chi@@
establishment
ks
municipality
benefit
ma
modern
tomislav
13th
approach
body
gave
takes
inf@@
courts
lives
ors
stage
particular
compromise
employment
ging
improved
opportunities
imp@@
ins
persons
14th
4.@@
costs
dodik
employees
financing
80
ben@@
improving
promised
protests
release
submitted
wing
ical
treaty
uni@@
bre@@
cal@@
concerning
ef@@
era
sejdiu
care
registered
sar@@
abdullah
charge
crvenkovski
ones
positions
professional
6.@@
account
critical
res
voa
agriculture
drug
hit
holds
showed
secure
16th
est@@
meetings
named
programmes
internal
table
places
ad
amid
dragan
mostly
ob@@
partners
turned
partner
possibility
rest
djukanovic
eurozone
ga@@
kal@@
25th
30th
ip@@
match
praised
ps
ure
benefits
focused
develop
expects
gre@@
street
happen
night
st
stay
500
na
providing
visitors
believed
id
ins@@
record
23rd
chamber
phase
sale
contract
ways
reconstruction
um
ach@@
american
cross
river
22nd
changed
resolve
aim
establishing
heads
ii
sic
spain
18th
hundreds
monitoring
0.@@
cities
let
movie
rating
shown
tourist
ye@@
adriatic
bul@@
heritage
ish@@
upcoming
fatmir
tors
dist@@
forced
lar@@
makes
negative
afghanistan
bill
contact
headed
institution
poll
200
35
available
poverty
refugees
avoid
id@@
cover
discussions
ep@@
ici@@
negotiating
str@@
basic
dar@@
environmental
host
intelligence
traditional
27th
continuing
ground
ists
mainly
pres@@
export
strengthening
allegedly
mer
mp@@
ship
huge
libya
lot
priorities
sal@@
agencies
bra@@
sought
vladimir
1,@@
czech
liberal
nov@@
spending
port
scheffer
send
person
sel@@
served
command
din@@
finally
hoop
looking
ness
personal
ping
tried
5.@@
goals
mean
pet@@
vienna
voting
census
moment
settlement
supply
task
1,000
facilities
historic
indi@@
procedures
economies
everyone
greeks
letter
pre
sali
transition
26th
affected
anti@@
sing
urging
1991
2012
fire
goran
israel
assessment
cas@@
caused
cited
ities
rfe
stance
wh@@
conflicts
dic
fil@@
fu@@
kon@@
bridge
emergency
pli@@
request
helping
liberalisation
prosecution
studies
vuk
austrian
loans
played
reasons
roundup
contribute
developments
ges
holding
nikolic
resolved
suspected
traffic
ele@@
im
individual
ms
prize
rl
currency
interested
attend
condition
if@@
medical
via
championship
criminals
don@@
foundation
mi
principles
vet@@
concluded
ngos
raise
raised
residents
thing
track
val@@
1998
ance
attempt
offers
cep@@
hashim
territorial
affect
bringing
has@@
ing@@
sol@@
test
ze@@
edition
sfor
spent
vu@@
attention
democrats
individuals
kov
quickly
cy
hosted
personnel
threats
transfer
follow
mes
ology
croats
figure
headquarters
noting
q@@
radical
decades
linda
peacekeeping
stake
statements
amendments
carried
criticism
invitation
karamanlis
sites
backed
hospital
voted
18@@
col@@
eu@@
pass
trust
29th
code
incident
pas@@
placed
provides
visits
acts
adoption
china
muslims
questions
block
cic
journalist
milorad
represent
taxes
turnout
facility
located
phone
electoral
fourth
jeremic
od@@
plants
speech
sta@@
ah@@
gain
tells
traian
dy
formed
industrial
mps
speed
decade
massacre
medi@@
safety
tensions
24th
cing
ti
300
beta
born
croat
lju@@
statistics
target
determined
neighbours
peaceful
systems
concerned
hy@@
ir
roads
buildings
developed
feel
imports
structure
tour
tun@@
7.@@
90
initial
iv@@
pact
permanent
sectors
separate
connection
li
mir@@
paul
supporters
treatment
blo@@
di
ner
revenues
transparency
values
views
artists
bosniak
bush
ev
films
houses
ming
outcome
vic
barroso
commercial
hands
numerous
accepted
administrative
club
homes
lines
pace
participated
stands
worst
georgi
indicated
limited
marked
model
participating
civilian
firms
fore@@
nis
ou
units
ves
woman
ci
creating
oc@@
sell
supports
warning
ahmet
dj@@
fear
fran@@
london
mass
stations
van
essential
eventually
fans
hdz
nor
sold
expert
gathered
netherlands
14@@
antonio
branko
buy
entities
prior
civilians
income
range
division
got
tin@@
wi@@
allowing
alone
den
station
ving
above
isation
lin@@
players
race
saw
damage
entertainment
giving
ai@@
fy
incidents
ker
simply
supporting
consensus
creation
door
ebrd
fugitive
milan
missions
tation
ton@@
top@@
assets
favour
gal@@
nationalist
ohr
therefore
2m
assassination
ics
ini
institutional
managed
mediterranean
newly
really
tariceanu
visiting
banking
hol@@
ke
radic
readiness
solve
deadline
karadaku
natasa
ws
evic
operational
pat@@
safe
salaries
5,000
decentralisation
demands
dz@@
kan@@
kos@@
square
accord
ancient
application
bat@@
bos@@
dan
ik@@
maintain
getting
ivan
sy@@
telecom
carry
complex
far@@
dutch
image
moving
newspaper
resolving
schengen
approximately
encourage
poland
talk
turks
beyond
consequences
controversial
eur@@
produce
overcome
strike
bad
christmas
contribution
discovered
largely
parvanov
relationship
fied
reconciliation
sho@@
addressing
band
ced
commitments
discussion
ngo
9.@@
quarter
running
score
annually
appointed
delay
macedonians
reduction
bel@@
completely
officer
ture
wait
10@@
8.@@
fbih
georgiev
novi
primary
procedure
secret
sovereignty
student
weekend
arrests
autonomy
base
himself
ion
javier
medal
net
player
returned
source
stipe
3m
aware
highly
lajcak
paper
push
reiterated
sions
story
sustainable
anything
che@@
clearly
ili@@
mic@@
speci@@
13@@
district
dropped
introduced
leaving
observers
olo@@
allegations
lation
moldova
understanding
acting
developing
euobserver
friends
highway
syria
&apos;m
alternative
claim
coun@@
offices
paris
star
winning
academy
article
cars
claimed
cs
faced
lic
respectively
wrote
20@@
external
fication
finding
increasingly
judge
municipal
prominent
romanians
ys
activity
child
contest
numbers
reaching
representing
requires
resignation
season
details
diplomats
ends
finished
ger
helped
historical
ministries
missing
require
ring
functioning
martti
moved
parents
powers
practice
regular
streets
value
worked
addressed
adopt
buckovski
restrictions
thessaloniki
directly
plus
rising
space
widely
arms
cour@@
ite
mutual
nik
sad
seat
differences
diplomat
doesn
hungarian
owners
0m
ask
iraqi
promises
ukraine
web
probably
telekom
0
cal
cel@@
equal
factory
improvement
opposed
strongly
ative
cause
reality
remained
seems
awards
cat@@
ently
hoping
measure
off@@
owner
reduced
regulations
teams
unless
double
down@@
internationally
offering
opens
rap@@
suggest
talat
blocked
counter@@
drop
granted
lam@@
sin@@
substantial
31st
athletes
conduct
danube
easy
ered
filed
jan
ning
refused
scientists
sentence
stock
tic@@
trip
verdict
1m
describing
exercise
retired
cha@@
cin@@
enforcement
hor@@
ottoman
sa
ska
ther@@
thought
computer
enterprises
linked
ned
pav@@
spring
winter
&apos;re
allies
difficulties
index
intended
ivica
ranked
rotating
vol@@
za
appear
ator
attract
ck@@
meant
sum@@
tonnes
2,000
anyone
battle
camp
christofias
def@@
designed
hin@@
insurance
scientific
sk@@
standard
vla@@
apply
chapters
hu@@
regions
seeks
dp
goes
involving
kil@@
mine
oz@@
sentenced
subject
winner
ash@@
break
costas
formal
gro@@
psd
standing
var@@
vmro
aki
assist
concert
cuts
duties
hasani
leg@@
pra@@
represented
sense
soci@@
trend
willing
abuse
blic
cro@@
imposed
ordered
rose
solutions
stressing
ul
agricultural
ars
communication
guarantee
hour
initially
option
prove
ranking
salary
welcome
choice
destroyed
factors
founded
ising
proposals
supreme
sw@@
tal
threatened
berlin
direction
fell
ha
ish
remarks
sales
setting
vas@@
arts
austerity
ct
discrimination
fields
ined
invited
miroslav
operator
risks
smaller
tele@@
wide
16@@
45
efficiency
tac@@
true
attempts
contributed
honour
lar
sup@@
unable
ched
decline
depends
dro@@
fugitives
mun@@
petersen
slow
words
carla
charter
communications
detained
killing
neither
prepare
sdp
seriously
ships
tional
&apos;ve
adds
cli@@
dead
rugova
sive
spokesperson
tel
400
dealing
green
ham@@
ik
jessen
jevic
mother
pal@@
room
transportation
witness
appeal
boycott
crossing
initiatives
libyan
preparations
previously
stu@@
transferred
critics
denied
dss
eth@@
fra@@
injured
mostar
pur@@
ality
dated
dpmne
governor
integrity
lose
monitor
preparing
represents
satisfied
ster@@
tol@@
unity
website
arrangement
cards
hon@@
obtain
socialists
league
marks
ordination
sponsored
targets
th
wo@@
christian
cnn
deputies
determine
extended
golden
identified
identity
laura
merkel
networks
nic@@
ruled
understand
wal@@
ay
fuel
fur@@
generally
happened
insisted
location
pensions
profit
significantly
uk
2,@@
gri@@
iting
online
politically
promoting
relevant
bla@@
coast
cy@@
medals
obstacle
ranks
restructuring
supplies
tennis
viewed
failing
ghts
gun@@
ly@@
pension
stream
stronger
asylum
comm@@
davutoglu
entered
jic
nature
primarily
sanctions
vat
cho@@
eufor
humanitarian
ises
las@@
mag@@
marking
park
powerful
voter
boosting
borisov
comments
congress
gazprom
kers
lies
sha@@
appeared
ators
books
game
japan
mines
scale
stanishev
telecommunications
upon
yan@@
15@@
55
bak@@
cos@@
existence
fraud
israeli
pac@@
spend
structural
bids
changing
determination
dinkic
expectations
factor
fic@@
fifth
guilty
names
ne
obstacles
paddy
regardless
sil@@
unacceptable
users
vision
0km
cap@@
competitiveness
jose
josipovic
links
purchase
refugee
route
urges
white
4m
cla@@
duc@@
educational
ensuring
expansion
handed
heavy
kurds
manager
monetary
ners
ns
row
showing
ton
wife
6m
bed
bloomberg
bs
centres
cevic
chances
char@@
consortium
normal
ri
violations
vojvodina
covering
economist
ending
jaap
lawyer
milo
pasok
sla@@
spoke
tin
asia
diary
dnevnik
georgia
hi
insists
ished
plan@@
suspect
waiting
17@@
ages
closely
considering
consumers
cum@@
enable
envisions
flag
ile
istic
mic
optimistic
pfp
suggests
amp@@
below
des@@
fulfil
governance
presidents
sl@@
speak
ty@@
ya
75
appears
draskovic
extradition
ivanovic
lated
nicosia
pop@@
principle
receiving
scene
vujanovic
writer
&amp;
africa
certainly
combat
drugs
efficient
grant
ima@@
immediate
invested
losses
ori@@
pic@@
resort
search
smuggling
switzerland
transit
adviser
airlines
mehmet
moves
perspective
reporting
republics
serving
shares
wins
ante
distribution
exist
father
infor@@
ky@@
marina
mediapool
signal
song
tas@@
ches
competitive
convicted
fre@@
icj
jazz
paying
reducing
stefan
vac@@
&apos;ll
150
aj@@
compli@@
enjoy
eva
loss
multi@@
protected
silver
software
someone
sr@@
surrender
wartime
comprehensive
demanding
generals
islam
nabucco
occurred
produced
sparked
voice
whom
effects
ga
inter
mechanism
nor@@
rela@@
rich
ris@@
sees
southeastern
asi@@
becomes
belgium
chp
damaged
danger
ically
kg
kic
medium
michael
resident
ros@@
unique
7m
acknowledged
assistant
ceku
ciocoiu
constructive
express
hiding
iling
mp
new@@
otherwise
rural
aj
announcement
ass@@
bol@@
broad
considerable
domin@@
forming
guardian
impossible
kept
reunification
submit
bodies
bronze
fast
forms
gj@@
mb@@
suspended
tournament
vowed
wage
zar@@
8m
completion
counts
federal
nevertheless
3,000
achieving
citizenship
collection
dangerous
doctors
gets
meets
reli@@
slovakia
unesco
uz@@
va
10,000
applied
bulgarians
entering
holiday
hosts
mc@@
organisers
sion@@
trials
65
carrying
didn
guard
ideas
ivanov
manuel
matic
mind
qaeda
removed
witnesses
zaman
alexander
arab
blerta
candidacy
inv@@
investigations
ously
ra
rally
requirement
tolerance
undp
villages
wall
widespread
argues
back@@
estate
happy
heart
interim
kosor
lev@@
mia
objective
ological
ped
protocol
spanish
tem@@
wish
worldwide
aries
dev@@
hotel
metres
multiethnic
performed
terror
topic
vehicles
ven
wil@@
ail@@
ba
balance
editor
end@@
fying
gives
ians
ines
ler@@
lers
monthly
pon@@
signs
teachers
title
towns
unilateral
wages
watch
acceptable
confident
dui
eli@@
euractiv
eventual
exit
fundamental
keeping
manner
mur@@
nat@@
representation
size
tasks
!
awareness
businessmen
cru@@
deployment
destination
dur@@
effectively
ences
equ@@
except
foniqi
larger
obligation
sec@@
shot
wa@@
ats
choose
cting
facilitate
fail
haradinaj
inside
integrated
losing
lowest
memorandum
ovska
universities
1.5
2013
apart
aside
delayed
directed
farmers
gap
gone
ishing
minimum
multi
nikolovski
opoulos
popescu
prote@@
shared
sou@@
spar@@
auto@@
bon@@
gic
killings
nastase
ner@@
recommendations
replace
air@@
arguing
backing
ber
commerce
features
ija
ldk
lov@@
makfax
markovic
returns
babacan
extremely
hel@@
ice
initiated
listed
luxembourg
mat@@
organise
page
pap@@
performances
quite
violent
argue
fr@@
gs
moon
motion
preliminary
proved
realistic
revenue
shortly
tis
accounts
deep
ils
notes
rexhepi
sovereign
advantage
analysis
appropriate
commemor@@
controlled
famous
greatest
knowledge
passports
quick
sel
sentences
shi@@
steel
topics
unions
600
asking
ble@@
detention
dusan
duty
elec@@
expand
successfully
suffered
,000
awarded
beat
career
chancellor
circumstances
enti@@
extend
gos@@
kofi
ljajic
mail
pul@@
quar@@
reaction
agrees
delivered
demonstrate
din
elements
expression
favourable
hr@@
ibrahim
massive
robert
scandal
0,000
1996
aleksandar
chinese
dal@@
dominated
kat@@
kurdistan
patients
pointed
rama
serves
stepped
voicing
50m
accompanied
dacic
eurovision
gained
ken@@
lo
processes
railway
read
remove
respondents
singer
tradition
accusations
cop@@
crossings
endorsed
english
improvements
parallel
producer
scores
&apos;@@
bosniaks
cau@@
defined
echo
flights
immunity
indictee
leads
provisions
raising
resulted
severe
terrorists
turning
ust
waste
1993
20,000
allows
attending
chosen
commen@@
davor
displaced
economics
hos@@
kov@@
mustafa
patri@@
percentage
plays
ple@@
prosperity
radi@@
regard
rus@@
solved
bi
bran@@
chapter
citizen
contracts
estimates
fena
purpose
titled
tough
yo@@
capture
drew
edi@@
enhance
expensive
hina
instance
inzko
irregularities
prompted
shel@@
canada
cancer
daniel
doubt
gaining
ordinator
replaced
responsibilities
tw@@
type
1990
7,000
acted
actor
alising
argued
besides
dance
dy@@
faculty
fears
gen
mid@@
original
peoples
shooting
struggle
sun@@
sweden
telling
tives
written
32
actually
appointment
ase
bin
consul@@
elsewhere
fl@@
ki@@
milososki
morning
mosque
pil@@
proceedings
sufficient
vin@@
wn
wrong
-@@
actual
audience
coe
corridor
draw
hen@@
humanity
ious
kol@@
map
milovanovic
nebojsa
none
oglu
om
removal
sets
spread
syn@@
train
turk@@
visas
100,000
accordance
accords
cation
closure
destruction
haz@@
increases
insist
legislative
oned
recovery
rice
rup@@
tobacco
0th
advance
count
durres
electronic
formally
friendly
governing
guarantees
int
maintaining
millions
panel
playing
protecting
protesters
putin
rescue
sdsm
truth
120
cally
clinton
covered
degree
drawn
hearing
link
moreover
mul@@
seized
sending
troika
34
36
category
declined
dri@@
elect
explains
formation
introduction
ker@@
lau@@
lav
100m
america
archaeologists
armenian
assured
blocking
bot@@
corporation
deals
ff
immigrants
incumbent
jel@@
john
jun@@
les@@
migration
prin@@
ro
sav@@
ances
assess
atmosphere
bakoyannis
branch
consumption
convinced
deutsche
easier
eligible
feasibility
flu
informal
modernisation
organising
repeatedly
sarkozy
secular
selected
tes@@
usaid
wind
celebrated
clashes
conservative
disaster
easily
founder
fts
note
promising
ship@@
stated
urgent
announcing
bills
channel
depend
dly
donors
drafted
emphasised
housing
hurriyet
kt@@
material
matters
ni
payment
pose
practical
sealed
valentin
vital
50,000
8,000
akis
aling
coach
colleagues
dedicated
drag@@
geo@@
ie
instability
jak@@
kicked
savings
selling
ward
zivkovic
comment
ctions
djelic
flo@@
furthermore
gaz@@
insisting
inten@@
jur@@
license
rad@@
smoking
tanjug
urban
visi@@
bar
bureau
cec
celebrate
clar@@
combined
compete
constitu@@
cvetkovic
demanded
dor@@
ents
graph@@
healthcare
hoped
ol
ovac
petar
politician
profile
spokeswoman
worse
3,@@
ada@@
aspects
brings
couple
deliver
directorate
dozens
dubrovnik
gener@@
grounds
muhamet
photo@@
prevention
topi
wake
withdraw
answer
calin
claiming
correspondent
eng@@
lived
meta
nobody
passing
referring
religion
shor@@
upi
anu
broke
ching
cks
demonstrated
doors
hailed
introduce
irs
kabashi
microsoft
outlook
pdk
pot@@
practices
requested
soviet
video
yed
43
amounts
banned
chan@@
generation
giant
hotels
kas@@
kos
lists
mountain
preventing
section
spirit
surprise
syrian
twice
ze
33
aging
ani
ately
capable
condemned
display
dou@@
ery
grand
impose
jac@@
kovski
kul@@
las
mixed
onal
photo
prlenda
rely
tures
usually
wave
20m
featuring
gaddafi
intervention
ligh@@
potentially
proper
ramadan
torture
achievements
adequate
ambassadors
ard
closing
directors
dismissed
import
laundering
looks
negotiation
ovo
pic
picture
platform
rol@@
tackle
tribune
violation
10m
admission
bajram
bought
colle@@
equality
escu
female
freedoms
graphy
herald
ited
love
minute
oning
origin
recommended
vic@@
vlado
atrocities
autumn
begun
card
cast
context
ease
evski
exclusive
feature
han
lj@@
peacekeepers
promise
30@@
advanced
ama@@
ants
beijing
broadcasting
collective
deli@@
dil@@
expressing
finnish
gallery
heard
illu@@
limit
managing
materials
momentum
neighbour
oppose
ports
resigned
sergey
style
veto
zeljko
1997
backs
basketball
bc
concerts
deaths
encouraging
facebook
ine@@
missile
ologist
ot
oun@@
pending
putting
restri@@
save
stopped
tell
tension
text
win@@
analy@@
connected
contributions
counter
counterparts
fir@@
haris
ja@@
jury
mas
medicine
mirko
ots
polling
presents
producers
reactions
sp
temporary
va@@
51
archaeological
aring
communism
conclusion
difference
fat@@
fires
indeed
interethnic
iu
lay
perform
stojanovska
stood
vukovar
approve
delays
diplomacy
els
else
fas@@
filip
finals
fru@@
grow
hadzic
ining
konjikusic
ory
ownership
peter
pt
returning
satisfaction
sciences
sli@@
solidarity
stankovic
star@@
succeed
,@@
attracting
baj@@
brajshori
bus
cked
enormous
ets
fi
gol@@
ire
lon@@
monuments
nomin@@
poetry
promotion
relatively
riots
si
statistical
talking
utility
wel@@
.com
ade@@
admitted
alle@@
artist
bun@@
bus@@
convention
electric
evo
g17
hiv
jean
lake
moisiu
nano
optimism
revealed
surrounding
swedish
44
acy
bailout
cher
considers
fellow
gates
gh
investor
lawyers
locations
mechanisms
obama
ora
rac@@
super@@
ur
welcoming
xinhua
agim
author
concept
dating
decrease
digital
dimitris
hellenic
hot@@
launching
marovic
mentioned
migrants
minutes
publicly
reflect
respected
rome
telephone
threshold
unfortunately
wrapped
37
48
bojana
cking
complicated
controversy
convince
cu
disputes
ed@@
function
inovic
opera
regulation
resume
seeing
slav@@
swiss
technologies
unemployed
bic
clean
collapse
decisive
floods
ium
kla
krasniqi
literature
moder@@
objec@@
parti@@
tically
tihic
weekly
achievement
boys
brief
by@@
covers
deployed
dering
encouraged
fla@@
ial
kor@@
ratings
strikes
zan@@
41
46
birth
class
collaboration
commo@@
croatians
cts
hosting
investigate
investigative
kes
lying
macroeconomic
opponents
outgoing
palace
que
ras@@
recession
tab@@
turk
ures
w.
za@@
700
ably
attac@@
bozidar
conce@@
foster
handle
learn
product
respond
shall
she@@
stone
vel@@
2.5
australia
barbutov
cautioned
cement
cies
cted
emerging
engagement
findings
fun@@
isolation
maj@@
not@@
options
payments
provisional
termin@@
yes
4,000
bour@@
corrupt
defeated
ens
experienced
gender
halt
islamist
physi@@
proof
recorded
skills
struc@@
swe@@
tered
trajkovski
tripartite
undermine
zi@@
actors
belene
champion
conven@@
conver@@
diaspora
finland
highlighted
hospitals
iled
insufficient
kovacevic
kur@@
magazine
nearby
perhaps
prospect
rin@@
runs
subsidies
00,000
47
activists
associations
barricades
debts
dubbed
india
kap@@
manage
marija
marko
output
pe
pope
portion
registration
richard
word
42
adrian
bin@@
churches
dam
doctor
employers
explo@@
fails
geoana
jas@@
palestinian
posts
rock
simple
sometimes
speculation
unlikely
visible
warn
waters
aspirations
bomb
boyko
cubic
dar
driving
jail
ket
mus@@
pa
pledging
ran
sen
thirds
weak
welle
acquired
attitude
audi@@
begins
bir@@
brammertz
connections
conten@@
dejan
desire
ener@@
euro@@
fle@@
functional
haj@@
jankovic
labus
mes@@
mountains
movies
objectives
originally
passengers
pir@@
probe
professionals
properties
pushing
ratified
schilling
silajdzic
squ@@
teen
willingness
wine
arm
atory
cate
collected
contrast
declare
dimitrova
downtown
drive
funded
head@@
intention
mobil@@
provo@@
rapid
reserves
shift
tical
250
bia
bility
boz@@
broadcast
compensation
contacts
david
defendants
dramatic
egypt
fixed
foreigners
fri@@
friendship
home@@
ill
ministerial
mladjan
mo
policemen
portugal
proceed
racan
ratification
resign
rhetoric
schwarz
sixth
suggesting
wood
worry
38
9m
behalf
coastal
customers
financed
fine
finish
fulfilled
hall
iranian
ivan@@
los
maximum
nas@@
orders
reg@@
relatives
uses
announce
arch@@
arrive
ast
consideration
dic@@
fired
gue
journal
monastery
nimetz
pers@@
preparation
relief
rival
situations
symbol
trends
vely
vulnerable
with@@
12@@
assume
biljana
bit
burden
controls
falls
fol@@
friend
ich
ide@@
intends
interpre@@
ita
iti
jana
makers
mining
opposes
solid
targeted
transparent
urs
30,000
53
62
aegean
allocated
angela
appearance
buying
consumer
contra@@
coup
crowd
demetris
dps
evening
governmental
hun@@
inclusion
items
languages
my@@
newspapers
ordinary
preserve
real@@
retain
tests
1989
attracted
cash
cefta
cold
contemporary
documentary
exists
fresh
investing
jadranka
legally
lisbon
mel@@
normal@@
rat@@
records
responded
seekers
simsek
technological
veteran
1244
defend
dora
ex
excellent
holidays
kemal
lasting
lebanon
nobel
nu@@
objections
prizren
profits
renowned
soren
tuzla
welcomes
welfare
63
800
ayhan
bases
bigger
calm
carrier
ering
focusing
hil@@
ilic
irish
maker
postponed
run@@
secondary
seem
thanks
unprecedented
ved
venture
warns
1,500
aircraft
chain
complaints
consultations
custody
emerged
felt
illegally
ion@@
mladen
negotiate
papadopoulos
requests
scored
shut
67
banka
beth
bird
blame
catholic
centuries
farm
gerb
gur@@
identify
instal@@
jusuf
limits
rebels
sensitive
tou@@
unrest
vit@@
11@@
caught
cinema
dnevnik.bg
jovic
kova
nurses
poses
roman
sharing
strongest
tens
thinks
appeals
arena
berg
campaigns
conducting
connect
guests
honoured
liberation
obtained
ok@@
photos
republican
researchers
srs
thermal
tot@@
trained
transformation
25@@
6,000
bio@@
breaking
bsp
capacities
celebrations
chairmanship
competing
contrary
dig@@
eye
featured
glo@@
grap@@
immigration
inaugurated
informed
lat@@
lukic
messages
nominated
norway
outstanding
purposes
reflects
slightly
snsd
sts
tetovo
tics
alter@@
blood
collabor@@
compliance
comply
core
county
discussing
dozen
everybody
finds
grew
investigators
jointly
latter
legitimate
nis@@
possibilities
prisoners
pros@@
ption
renewed
sharp
alised
arrangements
assad
barriers
bear
direc@@
documentation
enterprise
envisioned
euronews
gather
influential
investigated
ksf
marketing
mov@@
murders
polish
rasim
receives
staged
ths
tured
academic
alisation
anadolu
attacked
brothers
computers
confron@@
dna
doubts
drawing
ek
engaged
lacks
medieval
monopoly
resistance
sandzak
selimaj
sharply
son@@
sound
speaks
ss
sugar
trou@@
zero
zi
200m
aged
amended
ara
drivers
fled
follows
girls
guaranteed
hap@@
ireland
legislature
lis@@
opinions
papoulias
perpetrators
presenting
sda
sized
stadium
tank
version
200,000
2014
apartment
attractive
blue
comple@@
cus
defeat
earthquake
economists
employed
ljubljana
operators
performers
presentation
questioned
realise
reas@@
respective
sele@@
significance
spa@@
tionally
tra
upgrade
writers
afford
arrival
associated
bles
constan@@
fulfilling
hur@@
ley
nd
og@@
phil@@
possibly
principal
projected
sat
tations
terzic
treated
triggered
whatever
49
alek@@
behaviour
causing
collect
continuation
contributing
destinations
extension
frozen
haven
kostov
laid
linking
med@@
milk
monitors
motor@@
negotiator
novak
plastic
ramadanovic
retail
strength
ultimately
actively
airports
ambitious
arguments
author@@
bars
blamed
burns
businessman
circu@@
combating
definitely
demonstrations
embar@@
exhibitions
fish
frattini
jus@@
library
moldovan
partial
pensioners
predrag
producing
pun@@
simeon
tioning
victim
zones
ć
85
accelerate
add
aids
chev
credibility
divisions
dre@@
expanded
extraordinary
gains
gers
harm
introducing
investigating
kan
legacy
lun@@
maturity
mos@@
outlined
overhaul
pressing
processing
regulatory
remember
st.
stor@@
struck
suffering
threatening
turmoil
types
worried
alcohol
beautiful
bitola
bombings
compar@@
contingent
djokovic
educated
ergenekon
ethnically
facts
flags
fuele
maintained
meat
militants
monument
ny
older
proud
restaurants
sis
specifically
sport
steering
strasbourg
svetla
tist
unclear
unicef
unite
ver
vlora
vski
50@@
alise
bdp
chemical
coverage
elderly
eve
fees
graphic
holders
isn
james
physical
propose
restore
rohan
sign@@
successor
suicide
supervised
survive
svetozar
wider
39
54
alfred
chose
dates
denmark
economically
enjoyed
escal@@
extreme
gy
industries
ive
kin@@
memorial
multiple
nica
partition
penal
planes
precondition
recru@@
san
shop
stalled
store
strict
succeeded
tan
tasked
teacher
tle
write
affecting
cell
championships
empire
engage
explain
eyes
falling
fest
fewer
files
firmly
fli@@
gashi
grave
hat
helps
households
husband
islands
jelena
neighbourhood
pped
register
renewable
ron
seselj
verheugen
--@@
1994
40,000
black@@
blow
burgas
cocaine
dul@@
engineering
evacu@@
faith
fdi
flow
hand@@
ku
lit@@
maria
nation@@
ologists
penalties
predi@@
read@@
roc@@
secured
short@@
solar
stalemate
veli@@
64
authors
bo
boc
crackdown
cutting
disappointment
erlis
evol@@
excessive
handover
intellectuals
inven@@
kostelic
lifting
los@@
medics
passport
pieces
procurement
provision
starts
variety
violated
wealth
3.5
57
apparent
armenia
ashton
azerbaijan
bridges
broader
credits
finalised
frank
freely
fulfill
happens
hood
indicate
instruc@@
kathimerini
komsic
let@@
mation
mayors
montenegrins
mpa
nationals
obvious
ous@@
pop
pursue
sulejman
tel@@
testimony
tied
ual
ults
56
66
actress
andy
ased
associate
ballot
capital@@
categories
clubs
deeply
demonstration
dependence
exhibit
expanding
expecting
gas@@
ico
ino
lasted
mol@@
observed
ok
oldest
placing
pollution
safeguard
sake
shortages
suit
unveiled
withdrawal
ach
adopting
amnesty
ballots
bly
bogdanovic
demonstrators
dum@@
extent
fines
hectares
injuries
jos@@
matches
methods
pan
rain
reading
repeat
signals
suspension
thinking
tified
tru@@
undertaken
ves@@
virus
warrant
1.2
10.@@
4,@@
52
airline
bishop
cable
civic
confirm
contain
corporate
dge
equally
gate
gathering
habi@@
isolated
jov@@
lap@@
lift
moderate
monitored
proven
recommend
ric
shopping
shops
tested
traditionally
uncertainty
ut
95
absolutely
applications
armenians
binding
democrat
dos
extending
extra
flight
grade
hikes
holkeri
isa
marathon
motivated
occur
ordinated
plane
reputation
rever@@
simic
specu@@
trouble
wars
afraid
afterwards
ammunition
amounted
architecture
assumed
attempted
branches
broken
capabilities
connecting
constructed
determining
disrup@@
distance
drafting
ethnicity
expenditures
extremist
fal@@
fashion
gang
heading
hu
instrument
io
jor@@
land@@
mafia
obtaining
pleased
prague
prevented
rounds
securing
sn@@
statehood
stemming
unearthed
unresolved
viewing
weather
2,500
disappointed
dos@@
extremists
finances
fishing
fly
frequently
geneva
hat@@
hot
ize
kosova
lieutenant
limaj
mediafax
mediator
nomination
pamuk
ranging
reliable
repeated
ticket
trading
unlike
valley
0s
30m
4.5
absence
adap@@
authorised
camps
center
comman@@
crises
daughter
driven
emil
enjoys
grown
mircea
musicians
mw
patriarch
pave
popularity
renewal
sezer
sort
spiric
surprised
toll
40m
accusing
arresting
ashed
beg@@
belgian
bombing
bonds
calcu@@
carefully
ceo
contains
continu@@
eliminate
forest
japanese
journalism
lining
perceived
performing
realised
restoration
rompres
runoff
separ@@
settle
siege
strengthened
tery
travelled
wan@@
younger
aded
aiming
amendment
ases
ational
aw@@
cating
contin@@
copenhagen
detailed
discrimin@@
ef
exchanges
fies
hard@@
initi@@
lis
ljiljana
obliged
paramilitary
piece
reject
reserve
seminar
supposed
surveillance
tia
500m
6,@@
aled
avljevic
blocks
break@@
condoleezza
consu@@
corps
describes
dimitrov
eib
emplo@@
faster
fought
gent
gil@@
impasse
issuing
ivana
korea
kosumi
lations
nationalism
oliver
piracy
pledges
rare
ray
reforming
solving
subsi@@
suffer
temperatures
valid
veterans
worker
wounded
appealed
awaiting
boskovski
cian
colonel
consists
deficits
delegations
dings
div@@
exercises
explosion
foot@@
guards
hear
heating
helm
innovation
jer@@
maybe
operated
oriented
publishing
raises
revised
sight
slowly
smo@@
stem
targeting
thir@@
tile
tries
ums
wisner
ahmeti
bamir
charging
cleared
coburg
coinci@@
concessions
dness
dream
eg@@
estonia
flat
grad
kermabon
kingdom
lay@@
lou@@
musical
nationwide
openly
opposing
q
respon@@
retirement
ruecker
rupel
saxe
sky
specialists
spor@@
sting
sun
sured
tito
travelling
12.@@
alities
apartments
ash
bottom
cancelled
content
dable
disabled
donor
experiences
icg
ier
ily
lazarova
ourselves
poet
posted
pressures
prot@@
rapidly
regularly
resulting
sds
shed
sible
surgery
transmission
volume
wed
ade
affili@@
alism
bah@@
ballet
bta
check
conclude
constant
djordjevic
driver
edi
estimate
europeans
fate
forget
foundations
fron@@
handling
heroin
impe@@
instruments
lec@@
lithuania
organ
passes
predicted
properly
pull
rece@@
sekerinska
stoj@@
ther
uncertain
vehicle
vetevendosje
&apos;clock
72
78
answers
atives
blan@@
brother
budapest
character@@
conclusions
consistent
cope
deadlock
designated
destroy
dual
ela
fiat
functions
knows
licenses
managers
milestone
postpone
protestors
purchased
rail
reasonable
ril@@
roots
selection
steiner
struga
struggling
tight
tool
undersecretary
unified
won@@
ü@@
acquire
african
approves
assigned
ball
brand
brazil
canadian
causes
del@@
design
entirely
exhibi@@
feeling
hike
imported
indictments
initiate
mah@@
mann
nur@@
ong
personally
pledge
portal
pow@@
productive
puts
raids
refinery
refusal
refuse
resi@@
routes
scandals
scope
shape
snow
spot
stages
stores
stro@@
unhcr
weight
1.6
15,000
2015
2020
5,@@
accident
benchmarks
channels
commit
completing
earmarked
earn
ecb
enabling
fications
folk
ih@@
joins
kre@@
learning
mak@@
mental
mention
miss
odds
ore
petrol
praising
punishment
rasmussen
react
recommendation
refer@@
regret
remin@@
rou@@
sps
symbol@@
ultranationalist
useful
writes
1974
68
bou@@
bound
brcko
capita
clients
courage
daianu
dismis@@
diyarbakir
ency
escape
exactly
fatos
frequent
granting
hydro
ingly
insight
integrate
kir@@
koha
luxury
maritime
onto
passage
pel@@
phenomenon
progressive
quo
referred
scenario
secularism
sessions
settled
sidelines
storm
supervision
surveyed
taxation
telegraph
vide@@
volunteers
58
60m
69
ale
anna
attributed
belong
constitute
demonstrates
fairly
gru@@
happening
hydropower
indicators
knew
kra@@
liqu@@
moral
nationalists
neighbourly
nicolas
rejection
ria
robertson
ser
sing@@
stress
thanked
tickets
urge
voices
walk
winners
withdrew
buried
castle
character
cil@@
clean@@
dink
donated
ena
evasion
exceed
exp@@
extradited
gabriel
gradually
involve
jat
len
modernise
offensive
penalty
petro@@
prepares
recognising
reflected
rel
see@@
shak@@
tain
traditions
transformed
unknown
ute
writing
adnan
alive
ardi
ari
bedrana
ctive
define
disease
ee
electrical
festivals
freeze
gi
gjorge
grand@@
greatly
hop@@
intensified
leaves
painful
pointing
pulaj
ramush
ries
rot@@
servants
sit
stars
stipulates
strategies
subsequently
surplus
tangible
venues
yard
advisory
atic
bankruptcy
bling
cab@@
cam@@
classified
courses
deadlines
democratisation
expertise
fill
fortress
god
hungarians
hurdle
implications
inadequate
kesh
kou@@
meaning
milos
miroljub
non@@
novosti
operates
pression
qualified
rapporteur
rehabilitation
semi@@
sle@@
sole
species
subsequent
symbols
symp@@
toward
tranche
truck
truly
victor
whereabouts
25m
acknowledging
acquitted
ads
allied
assassin@@
basha
biometric
bis@@
brigade
catch
challenging
che
cher@@
cit@@
convic@@
discusses
dynamic
element
embassies
emer@@
emphasis
exploration
gordana
handball
heavily
impro@@
intent
interference
izmir
jeopardise
jurisdiction
lating
mary
minor
plea
preservation
prodi
ram@@
reaffirmed
reference
respects
restored
scar@@
stories
sutanovac
symbolic
threaten
undertake
400m
61
advocates
albert
anatolian
attorney
birds
blueprint
briefed
celebration
conditional
confiscated
elementary
eroglu
expenses
factories
fledged
franco
nan@@
pers
petrovic
plot
popovic
prestigious
pushed
rooms
societies
sustained
tap@@
tina
trucks
watching
00@@
150,000
500,000
60,000
beating
bor
careful
clause
comprised
constituent
covic
cycle
database
decreased
discovery
ecological
employ
extradite
financially
founding
heat
heated
jewish
journey
lavrov
lifted
mayoral
medvedev
metal
negotiators
occasion
permits
phones
predecessor
predominantly
razvan
reve@@
sasa
sava
schedule
screening
seventh
sexual
shortcomings
soldier
specialised
trajkov
underground
wrap
aak
acknowledge
advertising
agents
beauty
bh
blair
breakthrough
chaos
continent
defeating
djur@@
green@@
ilir
intense
madrid
nak@@
native
oured
petrov
powell
refusing
removing
restaurant
rt@@
samardzic
shar@@
suspend
testify
59
bac@@
belonging
captured
caspian
degrees
echoed
funeral
haf@@
holder
incentives
izetbegovic
karic
karolos
landmark
margin
obli@@
orhan
pilot
pum@@
punished
radovanovic
rank
secession
seecp
seemed
separately
slovak
stolen
stream@@
totally
turing
+
1980s
anymore
boundaries
cavic
censorship
characterised
chiefs
classes
dealt
disagreements
elite
entitled
entrepreneurs
fried
indicates
infected
intellectual
ip
jacques
learned
locked
nicholas
pahor
passenger
peak
posed
qatar
relation
resorts
rooted
rts
shipping
tackling
talked
vers
viable
voluntary
zemun
acquisition
anticipated
appoint
asian
blast
bloggers
budgets
chaired
containing
depending
distinc@@
earth
eni
evaluation
fan
ford
girl
hardly
highlights
hundred
iron
jump
kinds
laden
literary
locals
martin
newest
obviously
ox@@
perception
profitable
purchasing
rak@@
rebuild
recognises
roles
scan@@
stefanovic
strain
supervis@@
swimming
thousand
turns
vast
ı@@
1.3
apparently
articles
assessed
assisting
attempting
auspices
background
bru@@
complained
condemning
construct
criticising
defending
depic@@
dr
enters
equipped
examples
false
fire@@
formerly
ici
janovic
kampschror
keeps
kets
kill
launches
miha@@
miller
mitev
operative
pekusic
permission
pharmaceutical
prefer
pressed
questioning
reactors
red@@
royal
sends
simitis
survival
tak@@
tassos
tex@@
timing
uncovered
valuable
vesna
voluntarily
a1
aviation
beqiri
biden
buyers
college
denies
diseases
earned
extensive
favours
globe
harder
hunger
junior
lawsuit
legitimacy
main@@
matthew
moody
mount
narcotics
orchestra
prompting
quest
rtk
satellite
senate
shield
snap
trans
13.@@
300,000
300m
73
81
900
98
accepting
addresses
advice
alongside
anovic
bay
bread
celebrates
chair
cigarette
deadly
debates
dow@@
drazen
embra@@
enhanced
expec@@
fatih
forecast
fundamental@@
generations
guns
iliescu
intensive
involves
kop@@
mounting
nationality
ombudsman
outbreak
overnight
papers
parliaments
petroleum
pin@@
practically
proclaimed
promoted
reacted
registry
saudi
sis@@
songs
spots
srbija
srdjan
statue
stones
suggestions
und
whereas
yilmaz
140
bags
broadcaster
cheaper
clash
com
consisting
day@@
decides
deploy
deposits
fruit
halted
impressive
influx
invite
negotiated
novinite
observe
owns
partly
posters
professors
prohibi@@
questionnaire
rankings
show@@
textile
tragedy
twenty
vessels
virtually
wards
zastava
é
&apos;d
25,000
7,@@
76
83
airspace
balanced
budgetary
clearing
clinic
competitors
confirms
correspon@@
darko
default
departure
disappeared
disasters
employee
filled
fragile
gun
helsinki
hyseni
impression
jobless
kaletovic
ken
male
necdet
northeast
one@@
ordinate
radmila
regarded
rich@@
roman@@
roughly
soccer
sof@@
undermining
velchev
yal@@
130
15.@@
abandoned
accountability
alakbar
alexandroupolis
alina
belongs
cak@@
chic@@
donations
eta
exception
explosives
forth
fostering
georgievski
globalisation
hampered
inefficient
intend
interesting
jovan
kam@@
kit@@
latvia
legend
lie
lined
mr.
permit
pnl
poorest
reluctant
responding
revolution
rompuy
sections
sively
spur
suspicion
theme
transactions
transform
underlined
vasil@@
yield
1.4
accelerated
antonela
australian
bribery
buyer
cler@@
collecting
consolidation
declaring
diagnos@@
dictator
distributed
ditore
diversity
dropping
erupted
exact
excavations
exceeded
fallen
favoured
fed
folklore
forecasts
glass
grey
ham
hatred
holy
hurdles
iceland
infec@@
institu@@
intensify
interven@@
kosanovic
kosovars
lukovic
mar
mess
mosques
mutually
paving
productivity
radicals
radmanovic
railways
raufoglu
reads
rejects
reveal
rivers
rob@@
semi
stabilise
wolfgang
zannier
82
acknowledges
acquis
angry
argentina
athlete
beaches
belief
bosnians
captain
ceasefire
clan
competencies
correct
develop@@
divide
drama
eliminating
erhard
extremism
feith
focuses
h5n1
holbrooke
installed
kragujevac
licen@@
maintenance
mari@@
metohija
milic
mistakes
museums
namely
nenad
partially
perceptions
petrescu
pm
populated
populations
praise
prerequisite
repair
rian
subsidiary
tree
unanimously
warnings
wrestling
5km
acceptance
activ@@
additionally
animal
assisted
autonomous
beach
cautious
cigarettes
coalitions
condemn
confirmation
dent
dtp
ene
facilitating
fee
google
honest
ignored
innocent
legality
modi@@
movements
obradovic
patient
persuade
positively
prece@@
premiere
raid
russians
semin@@
serge
shala
shock
simpli@@
sre@@
stambolic
teresa
territories
tops
translated
treasury
unnecessary
watchdog
worries
110
14.@@
1984
84
adjustment
affects
alt@@
assa@@
ataturk
audiences
bitter
bytyci
camer@@
cheap
commanders
comparison
cyber
dangers
danish
dark
deemed
delta
dervis
desi@@
detainees
dinar
earthquakes
embargo
enhancing
enver
flood
gan
hidden
imposing
ioc
ivanic
justified
maintains
necessarily
ordinating
prisons
proeski
prostitution
remarkable
rev@@
rijeka
searching
sooner
surveys
tas
testing
wasn
wearing
xhe@@
ç@@
70,000
99
airways
amend
collapsed
columnist
delivery
donald
encies
evident
examine
execution
exported
favourite
forests
freezing
gency
graduate
gross
helicopters
homeland
ideal
influenced
inform
jordan
kovac
metre
origin@@
outright
philip
philosophy
policing
portra@@
preserving
privatise
propaganda
prosecute
pru@@
psych@@
qi
ratify
rebuilding
residence
rit@@
ron@@
stabilising
sum
supporter
surrendered
tense
terminal
tious
unilaterally
ush@@
wireless
woes
zlatko
0.5
1,200
admit
anywhere
approaching
avaz
boy
catherine
charles
cm
coal
colo@@
constantly
crimin@@
cuk
curb
damages
deny
dered
disputed
dow
downturn
exploitation
extra@@
flee
fulfil@@
generate
hoxha
inauguration
intimidation
kids
kozloduy
krajina
letters
lion
lip@@
listen
looked
mandates
manufacturing
method
navy
neighbor@@
organs
pack
pleaded
projections
punish
relative
requiring
scrutiny
segment
stepping
teaching
theft
tone
unchanged
violating
websites
windows
wishes
witnessed
workshop
74
alike
anonymous
barack
brutal
byzantine
charity
complaint
concession
corner
cristian
declining
dismissal
dnevni
england
esm
explaining
fleet
flooding
graves
hence
kpc
leakey
marred
norwegian
ote
overcoming
persecution
petkovic
popovski
premi@@
regards
replacing
satisfactory
separatist
shut@@
sia
stal@@
steady
ukrainian
violate
12,000
abolished
ano
artefacts
aspect
avoided
bearing
blockade
bribes
campaigning
chair@@
composed
confirming
considerably
contradi@@
creates
dabilis
deal@@
dependent
die
dis
draws
emo@@
emphasising
enforce
gel
generated
ghana
ghter
glu
gracanica
hide
importantly
jarinje
marty
meps
milenkovic
nesovski
outlets
passy
peninsula
portfolio
prosperous
quoting
renov@@
rig@@
shkullaku
sns
theory
tier
traffickers
tripoli
unification
vari@@
volleyball
zenica
150m
15m
77
addi@@
bond
borislav
cameras
celebrating
checks
component
counting
crowds
demarcation
differ
discipline
ear@@
enclaves
endangered
expense
explosive
fighters
healthy
hillary
hurt
identification
industri@@
koci
latin
lessons
longstanding
lowered
margin@@
observer
petition
proliferation
proposing
reciprocity
reformist
rejecting
remittances
rocen
rum@@
sak@@
sceptical
severely
shelter
sibenik
somewhat
survived
tanja
textbooks
thracian
timetable
treat
troubled
upgraded
usage
viewers
walls
zel@@
350
6.5
accountable
advantages
aggres@@
altogether
ambitions
asks
associates
beer
cave
choosing
condi@@
counted
deeper
delegates
designate
devices
dogan
easing
explore
fitch
flexibility
gasoline
gymnastics
herman
hes
hill
inci@@
kps
kurti
lor@@
lukoil
milanovic
models
mt
pictures
pierre
pleas@@
poets
polo
regain
reporter
resumed
secre@@
sergei
sex
storage
strained
svilanovic
tenders
tioned
tled
tose
touch
trees
udf
unded
understood
unfair
1.7
7.5
71
absolute
accounting
apped
arbitration
attitudes
az
bildt
bombs
boo@@
competent
concludes
controlling
cular
cultures
damaging
deepening
defense
dele@@
disclosed
districts
eide
environmental@@
facto
fierce
flexible
flows
flying
frustration
ghtened
grants
incomes
inspired
isaf
laboratory
lawmaker
lescu
liaison
narrow
occupied
pages
paintings
peri@@
pipelines
postponement
proves
provider
publish
pula
slowdown
studying
sustainability
tend
undergo
unofficial
uprising
vacation
abolish
affirmed
alert
boom
branislav
breach
budva
capability
consulting
deliveries
describe
devastating
dignity
disagree
enrol@@
evade
finalise
fix
formula
fouere
goodwill
guest
hari
harsh
hostage
icic
idi@@
interpol
interpreted
intervene
jani
married
mihajlovic
mile
missed
mothers
norms
occasions
ole@@
pakistan
pit@@
predict
professionalism
root
sco@@
scr@@
securitate
simultaneously
smoke
spreading
stakes
stretch
tape
tapped
tax@@
tear
thorough
thrown
til@@
titles
uefa
vis
warm
yves
1,0@@
88
96
advocate
anagnostopoulos
applies
armies
aver@@
bands
bb
biased
bidder
boxes
briefing
busy
capitals
congratulated
creditors
decree
democracies
disagrees
donation
egyptian
existed
experiencing
fifa
hired
hits
ignoring
invitations
kav@@
lehne
manufacturer
mers
mistake
normalisation
ose
pavkovic
plates
poc@@
preconditions
protested
scoring
shkodra
sustain
taining
taxi
tism
tomb
tomorrow
trigger
venue
vlatko
accomplish@@
ailing
apolog@@
approaches
architect
baran
bel
beqaj
blago@@
bnn
boat
buses
circles
classical
consent
consequence
defendant
defended
eli
executed
expelled
flu@@
forcing
fuels
genuine
gordon
hala
handled
household
indication
jews
joachim
malta
miners
nms
nova
opponent
oting
pd
poultry
precedent
protesting
pursuing
refuses
ren
repatri@@
restitution
revo@@
risen
rivals
romano
shake
shouldn
solely
stall
steadily
swift
tages
taleski
transylvania
vowing
wind@@
70m
adequately
adver@@
applying
arche@@
ared
artistic
awaits
benedict
checkpoint
competed
complain
compo@@
costly
couldn
crash
dal
das
deb@@
devoted
dise
drought
editorial
eliminated
emissions
empty
enjoying
entrance
eries
everywhere
excise
feels
gangs
gin
grace
harmful
hub
idis
ids
imprisonment
inhabitants
ived
jonilda
kalfin
kuci
kumanovo
lacking
mandatory
mol
muammar
negle@@
ninth
notably
objects
ole
oli@@
periods
polar@@
precise
propor@@
prosecuted
ptk
readers
referenda
refrain
reiterating
researcher
retrial
reviewed
rumsfeld
shantek
signatures
skiing
slated
slight
sters
sworn
systematic
tatlises
technically
temporarily
universal
usual
veles
wear
wouldn
youngest
5.5
50th
86
abandon
absorption
accomplished
alists
allocate
andrija
beaten
belonged
beneficial
besa
birthday
breakaway
breaks
civilisation
coffee
commenting
communists
contracted
councils
credi@@
dece@@
deciding
dity
droutsas
elimination
essence
footage
grenades
ign@@
incorpor@@
ji@@
josip
kick
kovska
lingering
lustration
mihai
militant
miodrag
misko
murdered
night@@
op
pays
pliva
premises
rated
rescu
revive
shap@@
shocked
sitting
smokers
sy
sydney
tahiri
tools
totalling
transitional
undergoing
util@@
venizelos
virtual
visegrad
vukcevic
warsaw
wild
wreath
yan
zarko
1.5m
301
affair
ass
ata
bet
borrowing
boycotted
caucasus
cicek
combination
committees
compatible
confes@@
consulate
continuous
conventional
convincing
defining
dence
discontent
dollars
dramatically
eco
evenings
exploded
fos@@
gaza
greeted
guide
gur
ilovic
indian
janica
jones
justi@@
meantime
metal@@
migr@@
neutral
nice
nokia
notorious
occup@@
ordin@@
partnerships
patten
pel
polt
pool
preserved
privatised
privileged
promotes
proposes
psychological
regulate
repli@@
resumption
sian
soft
spr@@
stamp
stems
super
telecommunication
tip
unpaid
waves
workshops
1,800
400,000
80m
9,@@
amounting
anger
announces
antiqu@@
arrives
box
cafes
cargo
cations
champions
colin
comfortable
components
composer
contained
credible
debut
delaying
dem
demonstrating
denying
disagreement
djurovic
drinking
enta@@
excluded
exclusively
exemp@@
fe
fer
flotilla
formu@@
genc
gl@@
harmonisation
hopeful
itary
jansa
landscape
lengthy
mediated
memory
observatory
oecd
parade
pled
profession
quit
reductions
regulated
remote
replacement
residential
rumours
sal
scheme
scientist
scotsman
slalom
stagnation
subjects
sufficiently
tory
transported
troop
varna
vatican
water@@
zadar
zed
1.1
9,000
92
abuses
accidents
agreeing
appreciation
apprehended
assuming
assurances
bidding
bit@@
boosted
brain
cav@@
challenged
chambers
cians
commentator
conferences
contractors
daci
denktash
dogs
ees
electorate
elena
emerge
emir
essentially
evaluate
excav@@
floor
forever
hasan
highways
ignore
inc
indirect
integral
jandrokovic
kadare
kristina
legendary
lending
marian
marine
matics
mediation
migrant
nar@@
narro@@
nedjeljko
novel
ocalan
outs
poised
predicts
quarter@@
rebel
registering
relationships
resource
reward
screened
seaside
setback
shocks
sljivancanin
spite
spoken
suppliers
threatens
trains
trilateral
unusual
utilities
www.@@
zdravko
250m
75m
abolition
academics
accommodation
antalya
argument
audit
avoiding
barbu
boasts
borissov
burned
buz@@
carriers
caution
cements
christos
clauses
cohesion
common@@
communicate
coo@@
courtesy
damir
dom
doubled
equivalent
eupm
favour@@
giorgos
heav@@
ibar
insulting
kidnap@@
lowering
merchan@@
modest
multinational
myself
olympiad
oring
osijek
papademos
particip@@
piraeus
practi@@
presiding
pride
print
provoked
publication
renovated
renovation
revision
rudovic
separation
shale
sibiu
signalled
silent
slogan
suspicious
sweeping
tenure
tony
topalli
triumph
tual
ultimate
unhappy
villagers
wto
18.@@
91
acropolis
afternoon
aggressive
ah
alling
angel
apprehend
arhin
assault
attendance
attraction
avian
barracks
basbug
brokered
bureaucracy
cardi@@
chem@@
cites
clark
cleansing
comparatively
conversation
conviction
cry
ctors
dalma@@
demographic
denis
destabilise
device
dimitar
dimitrij
distant
doc@@
earn@@
echr
engineers
eurasian
europol
eurostat
everyday
filmmakers
frag@@
fulfillment
gjirokastra
gran@@
helicopter
icc
ideology
imply
impressed
incentive
infection
ios
isting
jocic
joseph
locate
macovei
maja
mitreva
mits
mufti
mustaf@@
neg@@
negatively
occupation
odihr
omy
overthrow
painter
philharmonic
plavsic
policeman
regimes
rent
revival
riot
roadmap
seconds
segments
separated
shakes
soil
spectators
stag@@
statute
staying
tative
tech
televised
than@@
unstable
window
xes
zur@@
12m
20km
87
alpha
anders
atomic
auto
automatically
awaited
bankrupt
barrier
bernard
bulletin
ceausescu
crowded
cultiv@@
dam@@
denti@@
dents
deplo@@
dick
dies
disbanded
documentaries
eighth
enabled
engine
expires
exposed
fabri@@
familiar
firefighters
guler
headscarf
headscarves
ipa
ized
kouchner
lovic
lulzim
lum@@
mentality
meters
mhp
naval
nes
offen@@
oslo
ossetia
outlines
packed
person@@
pick
play@@
portuguese
positi@@
possession
prix
prosper
queen
radar
ranko
recommends
refer
returnees
sadiku
scor@@
shadow
slim
span@@
staf@@
stephen
stick
takeover
taxpayers
tehran
termination
tudjman
undertaking
upper
200@@
97
acquiring
admiral
affordable
alkalaj
alumin@@
animals
badly
baghdad
btv
christians
clear@@
composition
credited
cripts
culmin@@
destroying
dinars
disar@@
dors
downer
drink
easter
enforced
ero@@
evn
forgotten
gated
harmony
highlight
hinges
hrant
impetus
inevitable
irreversible
kai
limiting
longest
loose
maps
marin
markac
mood
noticed
open@@
overwhelmingly
plovdiv
prince
prises
prohibited
realisation
refin@@
reflecting
rem@@
reminded
reserved
resignations
rift
robust
rout@@
safe@@
scepanovic
silence
sloven@@
slowed
sreten
stresses
strictly
successes
surprising
threw
totalled
touched
transla@@
travellers
ulted
vlasic
warming
watched
weaknesses
wright
zukorlic
180
79
8,@@
93
absta@@
aca
adverti@@
advised
aftermath
americans
appointments
archy
balkan@@
bone
bright
burning
cannes
clashed
crew
ctively
dicarlo
eat
effectiveness
eradi@@
feet
fined
fold
forged
forums
gam@@
gendar@@
gradual
gratitude
guidelines
handing
harvest
honours
imagine
janez
laying
layoffs
length
liquidity
lord
mainstream
marriage
missiles
mrf
nazi
nicolae
northeastern
patience
patrols
peacefully
percent
perfect
photographs
pling
prev@@
problematic
produces
profession@@
prosecuting
rarely
remikovic
resolutions
schook
secretariat
selimi
six@@
skender
smooth
standby
stays
tactics
tanks
tariffs
thank
toon
transferring
verdicts
wav@@
weapon
withdrawn
wonder
ö@@
é@@
ˈ@@
š@@
ğ@@
ë@@
č@@
ı
ž@@
ˈ
*
ë
ş@@
̇@@
à
ć@@
б@@
ï@@
đ@@
\
ç
í@@
€
=
@
_

â
ó@@
α
ι@@
&@@
°
ş
κ@@
ο@@
а@@
г
г@@
#


½
á@@
ø@@
ü
р
т@@
у@@
я
�
{
}

£
¦
©
±
º
¾
à@@
ã
ä@@
æ
è@@
ï
ñ@@
ý
ý@@
š
α@@
ε
ε@@
ι
μ@@
а
е
и@@
л
л@@
м@@
о@@
р@@
х
ъ@@
‑
